<pad>	0
<unk>	0
<s>	0
</s>	0
[CLS]	0
[SEP]	0
可以	-0
我们	-1
公司	-2
一个	-3
工作	-4
企业	-5
发展	-6
进行	-7
服务	-8
中国	-9
使用	-10
产品	-11
自己	-12
技术	-13
管理	-14
市场	-15
没有	-16
需要	-17
问题	-18
通过	-19
时间	-20
就是	-21
生产	-22
系统	-23
提供	-24
如果	-25
设计	-26
安全	-27
项目	-28
..	-29
什么	-30
国家	-31
设备	-32
这个	-33
他们	-34
要求	-35
可能	-36
建设	-37
信息	-38
因为	-39
情况	-40
研究	-41
主要	-42
经济	-43
以及	-44
生活	-45
不同	-46
重要	-47
社会	-48
行业	-49
同时	-50
人员	-51
。”	-52
方面	-53
环境	-54
”,	-55
活动	-56
专业	-57
数据	-58
相关	-59
好的	-60
影响	-61
很多	-62
已经	-63
选择	-64
质量	-65
所以	-66
方式	-67
对于	-68
的人	-69
工程	-70
处理	-71
这样	-72
能力	-73
的一	-74
其他	-75
不是	-76
具有	-77
过程	-78
非常	-79
时候	-80
▁(	-81
学生	-82
这些	-83
作为	-84
根据	-85
应用	-86
材料	-87
是一	-88
大家	-89
产业	-90
用户	-91
教育	-92
学习	-93
标准	-94
大的	-95
部分	-96
成为	-97
能够	-98
中的	-99
世界	-100
投资	-101
政府	-102
现在	-103
中心	-104
提高	-105
▁“	-106
国际	-107
开始	-108
但是	-109
创新	-110
品牌	-111
也是	-112
实现	-113
人的	-114
目前	-115
▁在	-116
平台	-117
或者	-118
组织	-119
科技	-120
还是	-121
内容	-122
一定	-123
孩子	-124
方法	-125
采用	-126
一些	-127
都是	-128
客户	-129
的是	-130
自己的	-131
部门	-132
有限	-133
因此	-134
第一	-135
表示	-136
比较	-137
出现	-138
单位	-139
人民	-140
合作	-141
功能	-142
控制	-143
机构	-144
网站	-145
了解	-146
一般	-147
需求	-148
到了	-149
包括	-150
网络	-151
作用	-152
所有	-153
不能	-154
:“	-155
提升	-156
这种	-157
基础	-158
上的	-159
解决	-160
健康	-161
城市	-162
文化	-163
价格	-164
结构	-165
知道	-166
”。	-167
如何	-168
不会	-169
),	-170
发生	-171
不断	-172
用于	-173
分析	-174
发现	-175
领域	-176
资源	-177
消费	-178
为了	-179
完成	-180
必须	-181
建筑	-182
由于	-183
保护	-184
来的	-185
智能	-186
治疗	-187
美国	-188
个人	-189
获得	-190
有限公司	-191
那么	-192
开展	-193
各种	-194
政策	-195
有效	-196
支持	-197
任何	-198
学校	-199
的时候	-200
规定	-201
疫情	-202
开发	-203
希望	-204
科学	-205
有关	-206
以上	-207
一步	-208
效果	-209
而且	-210
其中	-211
集团	-212
地区	-213
大学	-214
国内	-215
更多	-216
工业	-217
er	-218
代表	-219
责任	-220
关系	-221
之后	-222
知识	-223
利用	-224
北京	-225
特别	-226
制造	-227
in	-228
还有	-229
认为	-230
直接	-231
注意	-232
业务	-233
增加	-234
自动	-235
应该	-236
产生	-237
方案	-238
一起	-239
存在	-240
之间	-241
基本	-242
这一	-243
第二	-244
计划	-245
全球	-246
地方	-247
了一	-248
检测	-249
实际	-250
成本	-251
来说	-252
目标	-253
造成	-254
操作	-255
建立	-256
空间	-257
自然	-258
持续	-259
实施	-260
加强	-261
申请	-262
,“	-263
性能	-264
这是	-265
电子	-266
积极	-267
虽然	-268
容易	-269
过程中	-270
全国	-271
销售	-272
达到	-273
会议	-274
稳定	-275
经营	-276
条件	-277
系列	-278
传统	-279
年的	-280
负责	-281
朋友	-282
新的	-283
水平	-284
台湾	-285
保证	-286
模式	-287
结合	-288
不仅	-289
风险	-290
)。	-291
执行	-292
体系	-293
随着	-294
形成	-295
帮助	-296
精神	-297
患者	-298
汽车	-299
介绍	-300
你的	-301
更加	-302
安装	-303
范围	-304
不要	-305
进一步	-306
拥有	-307
综合	-308
显示	-309
医院	-310
进入	-311
重点	-312
无法	-313
全面	-314
交易	-315
是否	-316
成功	-317
on	-318
数字	-319
教学	-320
应当	-321
未来	-322
发布	-323
游戏	-324
一样	-325
一直	-326
参与	-327
按照	-328
老师	-329
其实	-330
性的	-331
起来	-332
结果	-333
增长	-334
推动	-335
价值	-336
不过	-337
怎么	-338
培训	-339
....	-340
许多	-341
导致	-342
施工	-343
继续	-344
提出	-345
推进	-346
温度	-347
上海	-348
我们的	-349
关键	-350
经验	-351
报告	-352
甚至	-353
参加	-354
关于	-355
两个	-356
银行	-357
我国	-358
简单	-359
保持	-360
行为	-361
最后	-362
艺术	-363
然后	-364
超过	-365
只有	-366
医疗	-367
原因	-368
加工	-369
保障	-370
生态	-371
食品	-372
an	-373
——	-374
检查	-375
经过	-376
坚持	-377
工艺	-378
一次	-379
资料	-380
看到	-381
时代	-382
及时	-383
才能	-384
%,	-385
我的	-386
优势	-387
运动	-388
制度	-389
记者	-390
法律	-391
第三	-392
建议	-393
文件	-394
并且	-395
以下	-396
领导	-397
机械	-398
之一	-399
决定	-400
一种	-401
万元	-402
的大	-403
研发	-404
措施	-405
努力	-406
计算	-407
满足	-408
觉得	-409
今年	-410
人才	-411
资金	-412
的话	-413
做好	-414
完全	-415
得到	-416
阶段	-417
历史	-418
体的	-419
减少	-420
今天	-421
改革	-422
人们	-423
这里	-424
比赛	-425
保险	-426
现场	-427
关注	-428
现代	-429
除了	-430
确保	-431
共同	-432
针对	-433
▁本	-434
变化	-435
表面	-436
规划	-437
学院	-438
日本	-439
是在	-440
联网	-441
降低	-442
压力	-443
运行	-444
金融	-445
规范	-446
团队	-447
的事	-448
表现	-449
快速	-450
期间	-451
生物	-452
的问题	-453
员工	-454
充分	-455
避免	-456
就会	-457
交流	-458
促进	-459
形式	-460
不得	-461
专家	-462
区域	-463
有的	-464
机制	-465
手机	-466
考虑	-467
一下	-468
竞争	-469
落实	-470
家庭	-471
程序	-472
调整	-473
完善	-474
接受	-475
正常	-476
调查	-477
体验	-478
规模	-479
喜欢	-480
只是	-481
之前	-482
机关	-483
正在	-484
打造	-485
亿元	-486
环保	-487
en	-488
核心	-489
带来	-490
▁S	-491
高的	-492
严重	-493
发挥	-494
机会	-495
委员	-496
也不	-497
特点	-498
消费者	-499
取得	-500
受到	-501
越来	-502
ar	-503
他的	-504
监管	-505
的发展	-506
越来越	-507
的高	-508
身体	-509
不同的	-510
软件	-511
的情况	-512
符合	-513
效率	-514
丰富	-515
制作	-516
广泛	-517
注册	-518
行政	-519
教师	-520
媒体	-521
适合	-522
不可	-523
交通	-524
维护	-525
的工作	-526
都有	-527
状态	-528
的新	-529
感觉	-530
方便	-531
购买	-532
污染	-533
金属	-534
课程	-535
也有	-536
供应	-537
化的	-538
以来	-539
整个	-540
方向	-541
量的	-542
从而	-543
因素	-544
故事	-545
指导	-546
确定	-547
。“	-548
长期	-549
or	-550
农业	-551
左右	-552
任务	-553
职业	-554
目的	-555
合理	-556
准备	-557
整体	-558
是一种	-559
办公	-560
包装	-561
战略	-562
具体	-563
作品	-564
比如	-565
联系	-566
白癜	-567
空气	-568
%。	-569
绿色	-570
白癜风	-571
能源	-572
基金	-573
小时	-574
是一个	-575
程度	-576
这样的	-577
的重要	-578
卫生	-579
咨询	-580
行动	-581
中央	-582
视频	-583
考试	-584
政治	-585
属于	-586
旅游	-587
有些	-588
过去	-589
只要	-590
实验	-591
年来	-592
主题	-593
书记	-594
资产	-595
)、	-596
每个	-597
互联网	-598
改变	-599
十分	-600
设施	-601
东西	-602
费用	-603
特色	-604
香港	-605
明显	-606
速度	-607
▁C	-608
严格	-609
成立	-610
分别	-611
商业	-612
出来	-613
另外	-614
创业	-615
组成	-616
毕业	-617
音乐	-618
公共	-619
le	-620
防控	-621
品质	-622
深入	-623
联合	-624
创造	-625
玻璃	-626
事业	-627
真正	-628
说明	-629
出的	-630
工具	-631
社区	-632
实践	-633
当然	-634
培养	-635
”、	-636
运营	-637
宣传	-638
都会	-639
公开	-640
出了	-641
意识	-642
测试	-643
统计	-644
成果	-645
儿童	-646
明确	-647
采购	-648
▁A	-649
自身	-650
重要的	-651
理解	-652
广告	-653
尤其	-654
也会	-655
面积	-656
相对	-657
不少	-658
思想	-659
后的	-660
首先	-661
优化	-662
制定	-663
监督	-664
发展的	-665
下来	-666
al	-667
智慧	-668
意见	-669
面对	-670
正确	-671
委员会	-672
的小	-673
开放	-674
理念	-675
▁第	-676
来看	-677
▁一	-678
并不	-679
机器	-680
分钟	-681
此外	-682
用的	-683
为什么	-684
反应	-685
收入	-686
沥青	-687
--	-688
农村	-689
成绩	-690
它的	-691
物流	-692
连接	-693
通常	-694
个月	-695
办法	-696
面的	-697
协会	-698
多的	-699
群众	-700
下的	-701
疾病	-702
有一	-703
内部	-704
商品	-705
如此	-706
生命	-707
at	-708
位置	-709
装置	-710
经常	-711
集中	-712
文章	-713
最终	-714
普通	-715
试验	-716
重大	-717
全部	-718
特殊	-719
安排	-720
想要	-721
通知	-722
力量	-723
无论	-724
它们	-725
运输	-726
指出	-727
来自	-728
推广	-729
样的	-730
采取	-731
化学	-732
出口	-733
真的	-734
统一	-735
例如	-736
先进	-737
欢迎	-738
设置	-739
动力	-740
运用	-741
▁P	-742
优秀	-743
办理	-744
证明	-745
也可以	-746
ic	-747
认识	-748
物质	-749
自由	-750
年度	-751
的产品	-752
正式	-753
分享	-754
合同	-755
年轻	-756
引起	-757
相信	-758
皮肤	-759
意义	-760
这么	-761
》,	-762
▁我	-763
主义	-764
多种	-765
评价	-766
增强	-767
多少	-768
每天	-769
您的	-770
优质	-771
塑料	-772
当地	-773
st	-774
升级	-775
加入	-776
产品的	-777
分为	-778
成长	-779
接触	-780
类型	-781
良好的	-782
的最	-783
依法	-784
的方式	-785
▁这	-786
改善	-787
新闻	-788
先生	-789
it	-790
女性	-791
理论	-792
强化	-793
不到	-794
同学	-795
移动	-796
▁M	-797
必要	-798
oo	-799
而是	-800
内的	-801
连续	-802
阅读	-803
美元	-804
mm	-805
日常	-806
只能	-807
独立	-808
哪些	-809
电话	-810
之间的	-811
主动	-812
当时	-813
做到	-814
涉及	-815
体育	-816
就可以	-817
会有	-818
经理	-819
告诉	-820
监测	-821
干部	-822
事件	-823
度的	-824
。(	-825
现象	-826
?”	-827
记录	-828
公司的	-829
找到	-830
力的	-831
困难	-832
防止	-833
妈妈	-834
投入	-835
原则	-836
吸引	-837
贸易	-838
以后	-839
科研	-840
性和	-841
氧化	-842
细胞	-843
一点	-844
加快	-845
然而	-846
相当	-847
距离	-848
上市	-849
......	-850
多数	-851
具备	-852
强调	-853
那些	-854
厂家	-855
他们的	-856
大型	-857
心理	-858
此次	-859
一定要	-860
的时间	-861
配合	-862
不锈	-863
你们	-864
展示	-865
治理	-866
复杂	-867
资本	-868
代理	-869
企业的	-870
酒店	-871
主任	-872
机的	-873
资格	-874
基地	-875
病毒	-876
ac	-877
推荐	-878
支付	-879
重新	-880
不锈钢	-881
另一	-882
▁的	-883
多个	-884
强度	-885
状况	-886
配置	-887
就业	-888
举办	-889
从事	-890
垃圾	-891
进行了	-892
主体	-893
中小	-894
在线	-895
重视	-896
风格	-897
动物	-898
讨论	-899
营销	-900
广大	-901
经历	-902
一定的	-903
re	-904
寿命	-905
下降	-906
认真	-907
装饰	-908
教授	-909
再次	-910
道路	-911
”、“	-912
乳化	-913
劳动	-914
协议	-915
习惯	-916
流程	-917
大会	-918
作者	-919
准确	-920
消息	-921
工作的	-922
本身	-923
循环	-924
深圳	-925
对方	-926
免费	-927
逐渐	-928
自我	-929
数量	-930
位于	-931
环节	-932
职工	-933
相应	-934
举行	-935
可能会	-936
电视	-937
给予	-938
青年	-939
是什么	-940
恢复	-941
探索	-942
产权	-943
人工	-944
报道	-945
各类	-946
训练	-947
即使	-948
股份	-949
一年	-950
等等	-951
食物	-952
车辆	-953
地址	-954
承担	-955
感染	-956
疫情防控	-957
可靠	-958
趋势	-959
ro	-960
几个	-961
形象	-962
电池	-963
身份	-964
▁如果	-965
法院	-966
手术	-967
而言	-968
认证	-969
肯定	-970
限制	-971
最近	-972
电脑	-973
鼓励	-974
技能	-975
生的	-976
财政	-977
观察	-978
高速	-979
幸福	-980
构建	-981
报名	-982
el	-983
引导	-984
高质量	-985
结束	-986
作业	-987
家长	-988
颜色	-989
往往	-990
有了	-991
沟通	-992
挑战	-993
下面	-994
事情	-995
营养	-996
转型	-997
大量	-998
现实	-999
固定	-1000
!”	-1001
不足	-1002
去年	-1003
高效	-1004
有所	-1005
污水	-1006
土地	-1007
贡献	-1008
之外	-1009
传播	-1010
融合	-1011
中华	-1012
当前	-1013
电影	-1014
症状	-1015
如今	-1016
有人	-1017
有机	-1018
▁B	-1019
各项	-1020
▁《	-1021
一切	-1022
指标	-1023
掌握	-1024
管道	-1025
展开	-1026
为主	-1027
平均	-1028
根本	-1029
的地方	-1030
董事	-1031
评估	-1032
值得	-1033
扩大	-1034
负责人	-1035
人类	-1036
里的	-1037
et	-1038
事项	-1039
最大	-1040
基于	-1041
论文	-1042
高度	-1043
▁我们	-1044
者的	-1045
▁从	-1046
山东	-1047
消防	-1048
▁据	-1049
覆盖	-1050
各地	-1051
回收	-1052
更好	-1053
电动	-1054
监察	-1055
真实	-1056
语言	-1057
突破	-1058
人士	-1059
双方	-1060
离子	-1061
即可	-1062
迅速	-1063
及其	-1064
知名	-1065
高温	-1066
的影响	-1067
仪器	-1068
到的	-1069
测量	-1070
包含	-1071
处于	-1072
成了	-1073
清洗	-1074
公布	-1075
成员	-1076
清洁	-1077
变得	-1078
完整	-1079
比例	-1080
有着	-1081
常见	-1082
的基础	-1083
启动	-1084
天然	-1085
相同	-1086
时期	-1087
还要	-1088
仍然	-1089
es	-1090
一体	-1091
加上	-1092
可是	-1093
每一	-1094
方面的	-1095
不错	-1096
同样	-1097
表达	-1098
透过	-1099
更多的	-1100
▁T	-1101
协调	-1102
父母	-1103
别人	-1104
部署	-1105
适用于	-1106
很大	-1107
证书	-1108
解决方案	-1109
依据	-1110
党委	-1111
岗位	-1112
腐蚀	-1113
进口	-1114
餐饮	-1115
法规	-1116
药物	-1117
实力	-1118
本次	-1119
利益	-1120
专业的	-1121
几乎	-1122
广州	-1123
临床	-1124
理想	-1125
节能	-1126
相比	-1127
PP	-1128
线上	-1129
网上	-1130
追求	-1131
子的	-1132
英国	-1133
兴趣	-1134
场景	-1135
加热	-1136
居民	-1137
**	-1138
呈现	-1139
就能	-1140
添加	-1141
自主	-1142
适应	-1143
三个	-1144
球队	-1145
面临	-1146
上述	-1147
规则	-1148
IP	-1149
打开	-1150
的好	-1151
解释	-1152
了一个	-1153
使得	-1154
信用	-1155
始终	-1156
角度	-1157
▁【	-1158
更新	-1159
称为	-1160
详细	-1161
am	-1162
布局	-1163
分类	-1164
医生	-1165
广东	-1166
清楚	-1167
还可以	-1168
om	-1169
保温	-1170
感受	-1171
母亲	-1172
公路	-1173
装修	-1174
不知道	-1175
放在	-1176
贷款	-1177
来源	-1178
案件	-1179
下载	-1180
让人	-1181
这次	-1182
事实	-1183
更是	-1184
场所	-1185
室内	-1186
电商	-1187
近平	-1188
预防	-1189
习近平	-1190
▁D	-1191
▁G	-1192
▁为	-1193
手段	-1194
的方法	-1195
党员	-1196
充满	-1197
顺利	-1198
大部分	-1199
的主要	-1200
植物	-1201
确认	-1202
ED	-1203
商标	-1204
推出	-1205
化工	-1206
涂料	-1207
最大的	-1208
各个	-1209
新型	-1210
协助	-1211
围绕	-1212
损失	-1213
支撑	-1214
气体	-1215
维修	-1216
上升	-1217
的服务	-1218
或是	-1219
每年	-1220
一家	-1221
不管	-1222
学会	-1223
那个	-1224
召开	-1225
享受	-1226
加盟	-1227
流量	-1228
于是	-1229
渠道	-1230
的心	-1231
的生活	-1232
的使用	-1233
体现	-1234
当中	-1235
总结	-1236
搜索	-1237
对象	-1238
不再	-1239
利润	-1240
复合	-1241
激光	-1242
也就是	-1243
官方	-1244
定位	-1245
新冠	-1246
as	-1247
共享	-1248
很多人	-1249
疫苗	-1250
特别是	-1251
的一种	-1252
冷却	-1253
所在	-1254
排名	-1255
故障	-1256
概念	-1257
生长	-1258
的事情	-1259
玩家	-1260
违法	-1261
的同时	-1262
创建	-1263
最高	-1264
药品	-1265
电机	-1266
两种	-1267
参考	-1268
在于	-1269
的一个	-1270
信号	-1271
登记	-1272
危险	-1273
密封	-1274
模型	-1275
反映	-1276
球员	-1277
货币	-1278
人民币	-1279
▁L	-1280
焊接	-1281
实行	-1282
图片	-1283
示范	-1284
贯彻	-1285
主要是	-1286
里面	-1287
预计	-1288
实验室	-1289
主管	-1290
心的	-1291
赛季	-1292
成都	-1293
组合	-1294
独特	-1295
背景	-1296
近期	-1297
ch	-1298
审查	-1299
尤其是	-1300
ou	-1301
并不是	-1302
的企业	-1303
工作人员	-1304
的情况下	-1305
幼儿	-1306
情况下	-1307
令人	-1308
指数	-1309
满意	-1310
装备	-1311
期待	-1312
▁二	-1313
系统的	-1314
至少	-1315
进步	-1316
合适	-1317
差异	-1318
构成	-1319
都在	-1320
女人	-1321
融资	-1322
转化	-1323
展现	-1324
欧洲	-1325
小的	-1326
她的	-1327
成熟	-1328
许可	-1329
的技术	-1330
就像	-1331
民族	-1332
相互	-1333
可以在	-1334
后来	-1335
有利	-1336
地产	-1337
快乐	-1338
都不	-1339
乡村	-1340
如下	-1341
市场的	-1342
投资者	-1343
思考	-1344
收集	-1345
深度	-1346
离开	-1347
行的	-1348
提供了	-1349
声音	-1350
是不	-1351
确实	-1352
更好的	-1353
▁F	-1354
以前	-1355
大多数	-1356
商务	-1357
党的	-1358
成分	-1359
自行	-1360
航空	-1361
设备的	-1362
纤维	-1363
高校	-1364
主席	-1365
元素	-1366
合格	-1367
印刷	-1368
良好	-1369
错误	-1370
使用的	-1371
加大	-1372
申报	-1373
下午	-1374
决策	-1375
尺寸	-1376
半年	-1377
▁N	-1378
人体	-1379
定的	-1380
混合	-1381
摘要	-1382
分子	-1383
致力	-1384
有一个	-1385
事故	-1386
曾经	-1387
电力	-1388
防护	-1389
ap	-1390
色彩	-1391
逐步	-1392
专利	-1393
在这	-1394
微信	-1395
思维	-1396
月份	-1397
队伍	-1398
都能	-1399
句话	-1400
基层	-1401
大大	-1402
文明	-1403
难以	-1404
伙伴	-1405
感谢	-1406
直播	-1407
的作用	-1408
动作	-1409
发表	-1410
▁R	-1411
到底	-1412
照片	-1413
调节	-1414
的要求	-1415
排放	-1416
是最	-1417
色的	-1418
”“	-1419
以为	-1420
做出	-1421
其它	-1422
动态	-1423
专门	-1424
很难	-1425
检验	-1426
多年	-1427
小编	-1428
少年	-1429
访问	-1430
配套	-1431
自动化	-1432
一致	-1433
情绪	-1434
特性	-1435
资讯	-1436
一旦	-1437
三年	-1438
优点	-1439
强的	-1440
有很多	-1441
合金	-1442
所谓	-1443
过滤	-1444
网友	-1445
近年来	-1446
尽管	-1447
等方面	-1448
一条	-1449
将在	-1450
监控	-1451
全体	-1452
遇到	-1453
似乎	-1454
意味	-1455
突出	-1456
▁当	-1457
意思	-1458
混凝	-1459
财务	-1460
互动	-1461
拒绝	-1462
预算	-1463
攻击	-1464
器的	-1465
提前	-1466
创作	-1467
应对	-1468
时的	-1469
是指	-1470
定制	-1471
证券	-1472
▁而	-1473
平衡	-1474
更为	-1475
观众	-1476
唯一	-1477
数字化	-1478
特征	-1479
▁对于	-1480
知识产权	-1481
也在	-1482
太阳	-1483
获取	-1484
▁I	-1485
二十	-1486
流动	-1487
股票	-1488
领先	-1489
吸收	-1490
将会	-1491
就要	-1492
几年	-1493
近日	-1494
区块	-1495
学术	-1496
审批	-1497
平方	-1498
投标	-1499
部件	-1500
丰富的	-1501
感到	-1502
的不	-1503
在一起	-1504
节目	-1505
委托	-1506
家的	-1507
愿意	-1508
上下	-1509
同意	-1510
定期	-1511
梦想	-1512
注重	-1513
担心	-1514
邀请	-1515
判断	-1516
品种	-1517
会上	-1518
学历	-1519
德国	-1520
美丽	-1521
美的	-1522
空调	-1523
考生	-1524
亚洲	-1525
公益	-1526
小组	-1527
风机	-1528
同比	-1529
干燥	-1530
类似	-1531
输出	-1532
▁三	-1533
不用	-1534
季度	-1535
态度	-1536
江苏	-1537
不好	-1538
依然	-1539
整合	-1540
的水	-1541
混凝土	-1542
的需求	-1543
作出	-1544
尽量	-1545
蛋白	-1546
公众	-1547
总是	-1548
最佳	-1549
补充	-1550
实体	-1551
让我们	-1552
电源	-1553
认可	-1554
》(	-1555
众多	-1556
考核	-1557
饮食	-1558
▁第二	-1559
人生	-1560
并在	-1561
物的	-1562
维持	-1563
原理	-1564
寻找	-1565
立即	-1566
策略	-1567
办公室	-1568
经典	-1569
改造	-1570
舒适	-1571
文字	-1572
是由	-1573
联盟	-1574
驾驶	-1575
供应商	-1576
主持	-1577
公里	-1578
分离	-1579
收益	-1580
▁公司	-1581
一个人	-1582
应用于	-1583
的设计	-1584
创意	-1585
刺激	-1586
工厂	-1587
公告	-1588
变成	-1589
很大的	-1590
信心	-1591
周期	-1592
而不	-1593
输送	-1594
最好	-1595
轻松	-1596
世纪	-1597
中医	-1598
执法	-1599
ion	-1600
如果你	-1601
行业的	-1602
十二	-1603
顾客	-1604
高级	-1605
并没有	-1606
ad	-1607
预期	-1608
原料	-1609
州市	-1610
正是	-1611
输入	-1612
大数据	-1613
也能	-1614
允许	-1615
家居	-1616
民众	-1617
犯罪	-1618
重庆	-1619
意味着	-1620
致力于	-1621
仲裁	-1622
精准	-1623
页面	-1624
▁根据	-1625
个性	-1626
国外	-1627
均匀	-1628
年龄	-1629
提交	-1630
突然	-1631
权利	-1632
眼睛	-1633
种植	-1634
首次	-1635
一段	-1636
问题的	-1637
il	-1638
力度	-1639
总经理	-1640
来到	-1641
is	-1642
地位	-1643
宣布	-1644
防腐	-1645
引领	-1646
规格	-1647
驱动	-1648
计算机	-1649
的前	-1650
▁新	-1651
时刻	-1652
较大	-1653
上涨	-1654
咖啡	-1655
效益	-1656
营业	-1657
公园	-1658
多元	-1659
代码	-1660
停止	-1661
回应	-1662
在此	-1663
委会	-1664
审核	-1665
的内容	-1666
会计	-1667
时尚	-1668
技术的	-1669
名称	-1670
四个	-1671
永远	-1672
自治	-1673
黄金	-1674
专项	-1675
支出	-1676
整理	-1677
来了	-1678
危害	-1679
▁年	-1680
宝宝	-1681
清晰	-1682
带来的	-1683
十年	-1684
存储	-1685
律师	-1686
生活中	-1687
最新	-1688
海外	-1689
灵活	-1690
住房	-1691
家具	-1692
引发	-1693
韩国	-1694
国务	-1695
大幅	-1696
感情	-1697
搅拌	-1698
适当	-1699
很好的	-1700
罗斯	-1701
让我	-1702
颗粒	-1703
也许	-1704
利亚	-1705
多次	-1706
本文	-1707
金额	-1708
开启	-1709
爱情	-1710
葡萄	-1711
也要	-1712
拍摄	-1713
标志	-1714
绝对	-1715
缺乏	-1716
表明	-1717
设立	-1718
大力	-1719
都要	-1720
外观	-1721
或许	-1722
更换	-1723
看看	-1724
ed	-1725
否则	-1726
想到	-1727
普遍	-1728
之中	-1729
▁,	-1730
低于	-1731
很好	-1732
案例	-1733
小区	-1734
应急	-1735
承诺	-1736
防火	-1737
破坏	-1738
制品	-1739
点击	-1740
论坛	-1741
区块链	-1742
台北	-1743
造型	-1744
一天	-1745
回到	-1746
感器	-1747
ing	-1748
领域的	-1749
分布	-1750
深化	-1751
联赛	-1752
人口	-1753
终于	-1754
搭配	-1755
物品	-1756
识别	-1757
有可能	-1758
净化	-1759
有效的	-1760
优先	-1761
十四	-1762
层次	-1763
提醒	-1764
是个	-1765
查询	-1766
调研	-1767
上了	-1768
优惠	-1769
所有的	-1770
大众	-1771
总体	-1772
显著	-1773
股东	-1774
交换	-1775
健全	-1776
儿子	-1777
招标	-1778
男人	-1779
辅助	-1780
在中国	-1781
地点	-1782
带着	-1783
至今	-1784
电缆	-1785
随时	-1786
加速	-1787
印度	-1788
材质	-1789
说的	-1790
选用	-1791
含量	-1792
护理	-1793
授权	-1794
武汉	-1795
的热	-1796
较为	-1797
董事长	-1798
ol	-1799
中共	-1800
切实	-1801
她们	-1802
诚信	-1803
都可以	-1804
出席	-1805
整改	-1806
防水	-1807
红色	-1808
阳光	-1809
革命	-1810
神经	-1811
部位	-1812
ow	-1813
业绩	-1814
博士	-1815
树脂	-1816
一代	-1817
中间	-1818
成的	-1819
熟悉	-1820
含有	-1821
电压	-1822
为您	-1823
培育	-1824
简称	-1825
同志	-1826
天气	-1827
不了	-1828
是不是	-1829
上面	-1830
专用	-1831
修改	-1832
医学	-1833
大陆	-1834
所需	-1835
会在	-1836
明白	-1837
晚上	-1838
河南	-1839
润滑	-1840
云南	-1841
法治	-1842
的原因	-1843
的安全	-1844
▁E	-1845
事务	-1846
伤害	-1847
冠军	-1848
日起	-1849
相关的	-1850
人在	-1851
会员	-1852
担任	-1853
等级	-1854
角色	-1855
通信	-1856
父亲	-1857
细节	-1858
长的	-1859
高端	-1860
履行	-1861
医师	-1862
乳化剂	-1863
范围内	-1864
收费	-1865
高压	-1866
国务院	-1867
校园	-1868
石油	-1869
能量	-1870
对外	-1871
形势	-1872
想法	-1873
爱的	-1874
身上	-1875
防疫	-1876
实际上	-1877
ag	-1878
保养	-1879
发行	-1880
家里	-1881
娱乐	-1882
用途	-1883
▁中国	-1884
成就	-1885
足球	-1886
▁H	-1887
发动	-1888
屏蔽	-1889
有点	-1890
精度	-1891
女儿	-1892
怎样	-1893
的主	-1894
...	-1895
传统的	-1896
长时间	-1897
分配	-1898
密度	-1899
素质	-1900
每一个	-1901
大小	-1902
尝试	-1903
森林	-1904
浏览	-1905
深刻	-1906
累计	-1907
还能	-1908
障碍	-1909
他人	-1910
用来	-1911
过的	-1912
很容易	-1913
的效果	-1914
学员	-1915
收到	-1916
出来的	-1917
下去	-1918
切割	-1919
生素	-1920
足够	-1921
集成	-1922
▁对	-1923
哪里	-1924
电流	-1925
停车	-1926
游客	-1927
》、	-1928
不够	-1929
合法	-1930
定义	-1931
日前	-1932
适用	-1933
助力	-1934
周围	-1935
消毒	-1936
带动	-1937
描述	-1938
某些	-1939
橡胶	-1940
视觉	-1941
说道	-1942
不良	-1943
名的	-1944
电器	-1945
就在	-1946
面向	-1947
冲击	-1948
青岛	-1949
以上的	-1950
司法	-1951
四川	-1952
看见	-1953
至于	-1954
起到	-1955
的市场	-1956
的生产	-1957
协同	-1958
有什么	-1959
天的	-1960
产业链	-1961
eb	-1962
机场	-1963
计量	-1964
是非常	-1965
上午	-1966
同一	-1967
▁中	-1968
前往	-1969
职责	-1970
LED	-1971
新时代	-1972
服务器	-1973
▁但	-1974
区别	-1975
园区	-1976
平时	-1977
房屋	-1978
出版	-1979
物理	-1980
白斑	-1981
便利	-1982
种类	-1983
车的	-1984
人民政府	-1985
▁有	-1986
居住	-1987
水泥	-1988
电气	-1989
隔离	-1990
提供的	-1991
▁W	-1992
人数	-1993
化妆	-1994
带领	-1995
批准	-1996
权益	-1997
浙江	-1998
让你	-1999
赛事	-2000
每次	-2001
统筹	-2002
我们在	-2003
不知	-2004
取消	-2005
并非	-2006
摄影	-2007
逻辑	-2008
id	-2009
股份有限公司	-2010
处置	-2011
家人	-2012
毕竟	-2013
第四	-2014
证据	-2015
房地产	-2016
也可	-2017
是因为	-2018
,《	-2019
肿瘤	-2020
在这个	-2021
ot	-2022
一名	-2023
失去	-2024
异常	-2025
ook	-2026
实用	-2027
慢慢	-2028
技巧	-2029
大量的	-2030
最好的	-2031
一路	-2032
做的	-2033
本科	-2034
编程	-2035
转移	-2036
和国	-2037
很快	-2038
支部	-2039
放弃	-2040
转变	-2041
和其他	-2042
两年	-2043
总书记	-2044
前的	-2045
随后	-2046
▁目前	-2047
平方米	-2048
相应的	-2049
多样	-2050
才是	-2051
网页	-2052
肺炎	-2053
不需要	-2054
参数	-2055
模块	-2056
孩子的	-2057
使命	-2058
性质	-2059
成交	-2060
转换	-2061
全力	-2062
地的	-2063
岁的	-2064
截至	-2065
接近	-2066
青春	-2067
第一次	-2068
名字	-2069
把握	-2070
附近	-2071
▁本文	-2072
机床	-2073
精彩	-2074
记忆	-2075
预测	-2076
区的	-2077
各级	-2078
引擎	-2079
拓展	-2080
数学	-2081
新增	-2082
评审	-2083
也没有	-2084
俄罗斯	-2085
做了	-2086
则是	-2087
功率	-2088
志愿	-2089
污水处理	-2090
出去	-2091
名单	-2092
外的	-2093
终端	-2094
配备	-2095
餐厅	-2096
IS	-2097
义务	-2098
厨房	-2099
彻底	-2100
传感器	-2101
ay	-2102
也很	-2103
无人	-2104
算法	-2105
铁路	-2106
出发	-2107
指挥	-2108
日子	-2109
版本	-2110
线的	-2111
考察	-2112
产生的	-2113
是一家	-2114
CO	-2115
板的	-2116
设定	-2117
还会	-2118
毕业生	-2119
一是	-2120
扩展	-2121
登录	-2122
社交	-2123
传输	-2124
学科	-2125
方位	-2126
用品	-2127
予以	-2128
群体	-2129
释放	-2130
专注	-2131
两人	-2132
基础设施	-2133
可见	-2134
物资	-2135
观点	-2136
一份	-2137
休息	-2138
集体	-2139
零售	-2140
有利于	-2141
机器人	-2142
而不是	-2143
十三	-2144
各位	-2145
招聘	-2146
部的	-2147
生产的	-2148
人物	-2149
子宫	-2150
师生	-2151
情形	-2152
理事	-2153
身边	-2154
这款	-2155
”(	-2156
原来	-2157
讲话	-2158
面试	-2159
接下来	-2160
网站的	-2161
蔬菜	-2162
全新	-2163
农民	-2164
对手	-2165
财产	-2166
全省	-2167
印象	-2168
条例	-2169
聚焦	-2170
虚拟	-2171
无论是	-2172
即将	-2173
型的	-2174
树立	-2175
美好	-2176
账户	-2177
货物	-2178
通讯	-2179
链接	-2180
间的	-2181
us	-2182
签订	-2183
采访	-2184
▁随着	-2185
稳定性	-2186
复印	-2187
展览	-2188
此时	-2189
新能源	-2190
监察机关	-2191
完美	-2192
延长	-2193
一系列	-2194
的价格	-2195
的选择	-2196
中小企业	-2197
也就	-2198
味道	-2199
APP	-2200
学生的	-2201
的信息	-2202
男性	-2203
在这里	-2204
新技术	-2205
PC	-2206
式的	-2207
血管	-2208
通风	-2209
有哪些	-2210
▁他	-2211
一位	-2212
件的	-2213
心里	-2214
较高	-2215
第三方	-2216
华为	-2217
电路	-2218
越南	-2219
com	-2220
制造业	-2221
PE	-2222
的数据	-2223
的过程中	-2224
一场	-2225
工资	-2226
手续	-2227
液体	-2228
美观	-2229
还在	-2230
%;	-2231
▁[	-2232
是有	-2233
河北	-2234
的东西	-2235
规定的	-2236
二是	-2237
修复	-2238
关心	-2239
反馈	-2240
物料	-2241
禁止	-2242
透明	-2243
智能化	-2244
现代化	-2245
到达	-2246
响应	-2247
市民	-2248
诊断	-2249
公安	-2250
周边	-2251
年代	-2252
我想	-2253
简单的	-2254
仔细	-2255
对此	-2256
死亡	-2257
留下	-2258
人群	-2259
实时	-2260
干净	-2261
损坏	-2262
照顾	-2263
纳入	-2264
▁由于	-2265
大概	-2266
课堂	-2267
院长	-2268
可以说	-2269
社会主义	-2270
指示	-2271
性格	-2272
期的	-2273
研讨	-2274
地面	-2275
天津	-2276
有时	-2277
编制	-2278
中国的	-2279
);	-2280
千万	-2281
查看	-2282
实现了	-2283
人力	-2284
保留	-2285
压缩	-2286
发出	-2287
坚定	-2288
奋斗	-2289
引进	-2290
护栏	-2291
教练	-2292
氛围	-2293
粉丝	-2294
通道	-2295
服务的	-2296
项目的	-2297
传递	-2298
和平	-2299
早已	-2300
的一些	-2301
th	-2302
住宅	-2303
土壤	-2304
编辑	-2305
陕西	-2306
国内外	-2307
AN	-2308
同步	-2309
水的	-2310
纷纷	-2311
养老	-2312
原本	-2313
对比	-2314
本人	-2315
英语	-2316
得到了	-2317
的基础上	-2318
▁O	-2319
之下	-2320
思路	-2321
提示	-2322
设计的	-2323
GB	-2324
基因	-2325
无需	-2326
热情	-2327
重复	-2328
用户的	-2329
国民	-2330
▁此外	-2331
生活的	-2332
经济发展	-2333
指定	-2334
更有	-2335
厂商	-2336
照明	-2337
答案	-2338
紧张	-2339
研究院	-2340
高质量发展	-2341
IC	-2342
便是	-2343
实在	-2344
强烈	-2345
真空	-2346
硬件	-2347
提出了	-2348
十五	-2349
模具	-2350
那里	-2351
标准化	-2352
的专业	-2353
▁与	-2354
医药	-2355
发的	-2356
市场上	-2357
》。	-2358
一线	-2359
出生	-2360
婚姻	-2361
景观	-2362
更高	-2363
此前	-2364
违反	-2365
工程师	-2366
中有	-2367
做法	-2368
地下	-2369
备案	-2370
燃料	-2371
的外	-2372
自学	-2373
高达	-2374
不一样	-2375
共和国	-2376
提高了	-2377
不但	-2378
助于	-2379
微博	-2380
股权	-2381
资质	-2382
防治	-2383
常见的	-2384
造成的	-2385
声明	-2386
常常	-2387
法国	-2388
百分	-2389
较低	-2390
可持续	-2391
器械	-2392
因而	-2393
提到	-2394
遵守	-2395
的相关	-2396
看起来	-2397
维生素	-2398
南京	-2399
就有	-2400
白色	-2401
轴承	-2402
我觉得	-2403
保存	-2404
先后	-2405
收购	-2406
消除	-2407
▁你	-2408
感应	-2409
气候	-2410
清单	-2411
积累	-2412
落地	-2413
为大家	-2414
其次	-2415
加坡	-2416
地板	-2417
将其	-2418
承包	-2419
直到	-2420
缩短	-2421
亿美元	-2422
材料的	-2423
人工智能	-2424
▁以	-2425
书法	-2426
俱乐	-2427
失败	-2428
情感	-2429
我就	-2430
效应	-2431
芯片	-2432
衣服	-2433
不如	-2434
产量	-2435
是以	-2436
期望	-2437
现有	-2438
租赁	-2439
PS	-2440
国有	-2441
节省	-2442
节约	-2443
万吨	-2444
免疫	-2445
女孩	-2446
提取	-2447
未来的	-2448
一流	-2449
团体	-2450
改进	-2451
活性	-2452
补贴	-2453
▁通过	-2454
ra	-2455
讲解	-2456
基本上	-2457
的能力	-2458
竞争力	-2459
会的	-2460
传承	-2461
充电	-2462
党史	-2463
养殖	-2464
呼吸	-2465
线下	-2466
钢管	-2467
高于	-2468
ig	-2469
凭借	-2470
是对	-2471
条款	-2472
采集	-2473
▁作为	-2474
坚决	-2475
太多	-2476
打印	-2477
申请人	-2478
上一	-2479
▁V	-2480
下列	-2481
不多	-2482
写作	-2483
利率	-2484
奖励	-2485
是我	-2486
生产线	-2487
第一个	-2488
pp	-2489
拍卖	-2490
接种	-2491
画面	-2492
祝福	-2493
认定	-2494
院校	-2495
下跌	-2496
中文	-2497
形状	-2498
流行	-2499
工作中	-2500
的环境	-2501
主办	-2502
农药	-2503
处罚	-2504
想象	-2505
激励	-2506
看来	-2507
各国	-2508
康复	-2509
替代	-2510
水利	-2511
记得	-2512
购物	-2513
》、《	-2514
事实上	-2515
自治区	-2516
不易	-2517
意外	-2518
清理	-2519
腾讯	-2520
选手	-2521
另一方面	-2522
型号	-2523
湖南	-2524
立刻	-2525
缺点	-2526
老人	-2527
要素	-2528
锻炼	-2529
黑色	-2530
信任	-2531
房间	-2532
有多	-2533
看着	-2534
难度	-2535
马上	-2536
这就是	-2537
共产	-2538
刚刚	-2539
后续	-2540
大气	-2541
威胁	-2542
特定	-2543
理由	-2544
美术	-2545
试点	-2546
重的	-2547
AI	-2548
期限	-2549
每日	-2550
以免	-2551
反复	-2552
对应	-2553
振兴	-2554
标签	-2555
浓度	-2556
生存	-2557
电梯	-2558
第五	-2559
高中	-2560
▁第三	-2561
有关部门	-2562
很有	-2563
总统	-2564
可以通过	-2565
互联	-2566
介质	-2567
但在	-2568
保健	-2569
发电	-2570
啤酒	-2571
回答	-2572
成型	-2573
新疆	-2574
格局	-2575
英文	-2576
也将	-2577
今日	-2578
回家	-2579
当事	-2580
才会	-2581
确诊	-2582
道德	-2583
重量	-2584
同学们	-2585
强大的	-2586
研究生	-2587
优良	-2588
党建	-2589
公平	-2590
加密	-2591
变形	-2592
天下	-2593
好像	-2594
开关	-2595
强制	-2596
显得	-2597
补偿	-2598
这也是	-2599
不在	-2600
告知	-2601
本地	-2602
站在	-2603
练习	-2604
老板	-2605
客户的	-2606
的过程	-2607
生态环境	-2608
参观	-2609
发言	-2610
外部	-2611
温暖	-2612
给大家	-2613
十九	-2614
配件	-2615
的关键	-2616
不开	-2617
报考	-2618
海洋	-2619
营造	-2620
评论	-2621
难题	-2622
一边	-2623
仪式	-2624
各自	-2625
密切	-2626
有序	-2627
福建	-2628
赢得	-2629
lo	-2630
▁大	-2631
上去	-2632
房子	-2633
业主	-2634
战斗	-2635
观念	-2636
达成	-2637
运作	-2638
部长	-2639
的质量	-2640
会长	-2641
口罩	-2642
小学	-2643
机遇	-2644
鉴定	-2645
频率	-2646
▁以上	-2647
AT	-2648
大于	-2649
干扰	-2650
探讨	-2651
数控	-2652
这位	-2653
ent	-2654
真正的	-2655
ww	-2656
后期	-2657
对接	-2658
层面	-2659
苹果	-2660
▁为了	-2661
和社会	-2662
现在的	-2663
食品安全	-2664
学位	-2665
收获	-2666
服用	-2667
街道	-2668
辐射	-2669
非法	-2670
农产品	-2671
这个问题	-2672
好了	-2673
家族	-2674
搭建	-2675
时机	-2676
框架	-2677
规律	-2678
售后	-2679
妻子	-2680
必然	-2681
核酸	-2682
省级	-2683
路径	-2684
使用寿命	-2685
同事	-2686
延伸	-2687
引入	-2688
民主	-2689
表演	-2690
更好地	-2691
习近平总书记	-2692
听到	-2693
供应链	-2694
件事	-2695
危机	-2696
建材	-2697
这类	-2698
人民法院	-2699
un	-2700
他说	-2701
厚度	-2702
将于	-2703
排水	-2704
活力	-2705
病情	-2706
观看	-2707
请求	-2708
出现了	-2709
的学生	-2710
▁-	-2711
三大	-2712
专题	-2713
回来	-2714
建造	-2715
招生	-2716
方的	-2717
期货	-2718
老年	-2719
获得了	-2720
大约	-2721
担当	-2722
新鲜	-2723
消失	-2724
百姓	-2725
过于	-2726
每个人	-2727
产业发展	-2728
ER	-2729
线路	-2730
▁但是	-2731
场比赛	-2732
充分发挥	-2733
▁上	-2734
它是	-2735
广场	-2736
竞赛	-2737
简介	-2738
的关系	-2739
中药	-2740
工商	-2741
报警	-2742
显然	-2743
而在	-2744
读者	-2745
透露	-2746
另一个	-2747
还没有	-2748
别的	-2749
好好	-2750
平安	-2751
样品	-2752
火锅	-2753
点的	-2754
着力	-2755
远程	-2756
同时也	-2757
IM	-2758
临时	-2759
发病	-2760
和谐	-2761
宇宙	-2762
报废	-2763
星期	-2764
消耗	-2765
订单	-2766
那样	-2767
年轻人	-2768
争议	-2769
依托	-2770
全程	-2771
尊重	-2772
年底	-2773
报导	-2774
究竟	-2775
进展	-2776
高等	-2777
信息化	-2778
可能是	-2779
独特的	-2780
管理的	-2781
要注意	-2782
ri	-2783
前景	-2784
用水	-2785
白酒	-2786
俱乐部	-2787
带来了	-2788
万人	-2789
关闭	-2790
协作	-2791
生意	-2792
结婚	-2793
你可以	-2794
设计师	-2795
钢结构	-2796
▁自	-2797
内心	-2798
受理	-2799
很少	-2800
敏感	-2801
浪费	-2802
激发	-2803
秘书	-2804
风景	-2805
一体化	-2806
在使用	-2807
▁●	-2808
健身	-2809
储存	-2810
全市	-2811
各大	-2812
图像	-2813
场的	-2814
百年	-2815
职务	-2816
路上	-2817
的治疗	-2818
安全生产	-2819
▁本文摘要	-2820
不论	-2821
传动	-2822
客观	-2823
车型	-2824
饮料	-2825
也不会	-2826
科技创新	-2827
US	-2828
夫妻	-2829
对其	-2830
屏幕	-2831
桥梁	-2832
英雄	-2833
融入	-2834
的研究	-2835
一级	-2836
年初	-2837
挖掘	-2838
旋转	-2839
电磁	-2840
我们将	-2841
的应用	-2842
II	-2843
政务	-2844
无线	-2845
模拟	-2846
步骤	-2847
爸爸	-2848
美食	-2849
菩萨	-2850
销量	-2851
巨大的	-2852
。《	-2853
人大	-2854
彼此	-2855
武器	-2856
漂亮	-2857
细菌	-2858
缓解	-2859
胜利	-2860
走向	-2861
孩子们	-2862
相结合	-2863
NA	-2864
分散	-2865
学者	-2866
我在	-2867
接着	-2868
旅行	-2869
明星	-2870
一方面	-2871
十八	-2872
对话	-2873
弹性	-2874
矛盾	-2875
美容	-2876
苏州	-2877
说过	-2878
为客户	-2879
▁小	-2880
一张	-2881
他在	-2882
当天	-2883
很高	-2884
▁所以	-2885
的感觉	-2886
医疗器械	-2887
官网	-2888
废气	-2889
病例	-2890
要有	-2891
ter	-2892
全方位	-2893
必要的	-2894
都没有	-2895
越来越多	-2896
人为	-2897
催化	-2898
户外	-2899
荣誉	-2900
新加坡	-2901
ct	-2902
兄弟	-2903
发达	-2904
局长	-2905
抑制	-2906
新区	-2907
舞台	-2908
的特点	-2909
中华人民	-2910
主人	-2911
五年	-2912
反对	-2913
反而	-2914
在地	-2915
已有	-2916
心情	-2917
成人	-2918
更大	-2919
百度	-2920
等待	-2921
自信	-2922
说话	-2923
和服务	-2924
国家的	-2925
主管部门	-2926
功效	-2927
可在	-2928
尽快	-2929
巨大	-2930
民生	-2931
演员	-2932
管控	-2933
邮件	-2934
的目的	-2935
三角	-2936
单元	-2937
发明	-2938
季节	-2939
承受	-2940
控股	-2941
档案	-2942
渗透	-2943
湖北	-2944
起了	-2945
过了	-2946
进而	-2947
队的	-2948
隐患	-2949
的机会	-2950
OS	-2951
od	-2952
日益	-2953
激烈	-2954
硕士	-2955
移民	-2956
给你	-2957
绝缘	-2958
讲述	-2959
面前	-2960
食用	-2961
一批	-2962
减速	-2963
损害	-2964
放置	-2965
盈利	-2966
行程	-2967
本网站	-2968
▁该	-2969
就不	-2970
工人	-2971
成效	-2972
是很	-2973
普及	-2974
合理的	-2975
中华人民共和国	-2976
%、	-2977
低温	-2978
总部	-2979
挑选	-2980
过来	-2981
一体的	-2982
北京市	-2983
正确的	-2984
等问题	-2985
os	-2986
二次	-2987
剧情	-2988
城区	-2989
多家	-2990
杭州	-2991
正规	-2992
出现在	-2993
St	-2994
ab	-2995
产能	-2996
比特	-2997
液压	-2998
燃烧	-2999
由此	-3000
仪表	-3001
内外	-3002
命运	-3003
新兴	-3004
标题	-3005
紧密	-3006
经费	-3007
成为了	-3008
以便	-3009
团结	-3010
填写	-3011
容量	-3012
担保	-3013
煤炭	-3014
背后	-3015
陆续	-3016
出台	-3017
大多	-3018
常务	-3019
开心	-3020
形态	-3021
总裁	-3022
窗口	-3023
聚集	-3024
通报	-3025
面上	-3026
CP	-3027
之处	-3028
使其	-3029
供给	-3030
几天	-3031
婴儿	-3032
模板	-3033
而成	-3034
高考	-3035
齿轮	-3036
要求的	-3037
xx	-3038
▁饰	-3039
不想	-3040
借助	-3041
女士	-3042
本来	-3043
超声	-3044
的朋友	-3045
为何	-3046
体会	-3047
发送	-3048
子女	-3049
是要	-3050
水果	-3051
短期	-3052
能否	-3053
认知	-3054
再生	-3055
大赛	-3056
纪念	-3057
血液	-3058
▁虽然	-3059
东方	-3060
冬季	-3061
减轻	-3062
常态	-3063
火灾	-3064
紧急	-3065
ID	-3066
之路	-3067
休闲	-3068
依赖	-3069
博物	-3070
周年	-3071
喜爱	-3072
导向	-3073
封闭	-3074
旅客	-3075
现状	-3076
现金	-3077
合适的	-3078
我们要	-3079
较高的	-3080
青少年	-3081
乳化沥青	-3082
有害	-3083
残疾	-3084
诉讼	-3085
▁第一	-3086
人员的	-3087
党支部	-3088
日下午	-3089
ff	-3090
互相	-3091
依靠	-3092
摄像	-3093
男子	-3094
笔记	-3095
路线	-3096
隐私	-3097
▁现在	-3098
铝合金	-3099
IT	-3100
体积	-3101
城镇	-3102
女子	-3103
早期	-3104
木材	-3105
痛苦	-3106
离婚	-3107
税务	-3108
负担	-3109
途径	-3110
条件下	-3111
沥青乳化剂	-3112
以往	-3113
教会	-3114
无疑	-3115
病人	-3116
的中	-3117
精密	-3118
西安	-3119
LC	-3120
ul	-3121
▁是	-3122
便宜	-3123
初步	-3124
删除	-3125
发放	-3126
打击	-3127
攻坚	-3128
目录	-3129
有助于	-3130
的基本	-3131
丈夫	-3132
体制	-3133
到位	-3134
安徽	-3135
工会	-3136
旗下	-3137
欣赏	-3138
法定	-3139
的几	-3140
能在	-3141
补助	-3142
超市	-3143
跟着	-3144
运转	-3145
ce	-3146
公积	-3147
前进	-3148
本质	-3149
活跃	-3150
爆发	-3151
甲醛	-3152
镀锌	-3153
麻烦	-3154
了很多	-3155
一段时间	-3156
、“	-3157
平稳	-3158
我是	-3159
扶贫	-3160
最低	-3161
矿山	-3162
算是	-3163
读书	-3164
走进	-3165
科技有限公司	-3166
战争	-3167
接口	-3168
日的	-3169
期刊	-3170
祖国	-3171
跨境	-3172
ET	-3173
em	-3174
共有	-3175
发育	-3176
好处	-3177
教材	-3178
关键词	-3179
研究所	-3180
军事	-3181
创立	-3182
回归	-3183
在一	-3184
实习	-3185
财富	-3186
当事人	-3187
的管理	-3188
重要的是	-3189
AR	-3190
eo	-3191
参赛	-3192
变更	-3193
样子	-3194
给了	-3195
自觉	-3196
车间	-3197
那种	-3198
都很	-3199
限于	-3200
饲料	-3201
ind	-3202
▁首先	-3203
世界上	-3204
全世界	-3205
大学生	-3206
不利	-3207
帮扶	-3208
强大	-3209
杂志	-3210
节点	-3211
验证	-3212
不得不	-3213
尽可能	-3214
有没有	-3215
程度上	-3216
新冠肺炎	-3217
场地	-3218
所得	-3219
时光	-3220
本土	-3221
注射	-3222
纪录	-3223
超级	-3224
除尘	-3225
世界杯	-3226
物联网	-3227
产品质量	-3228
局部	-3229
平面	-3230
公积金	-3231
原材料	-3232
》《	-3233
以外	-3234
单一	-3235
国产	-3236
散热	-3237
服装	-3238
波动	-3239
湿度	-3240
税收	-3241
辅导	-3242
um	-3243
入口	-3244
库存	-3245
我们可以	-3246
,”	-3247
争取	-3248
去了	-3249
商家	-3250
报价	-3251
贵的	-3252
可能性	-3253
的目标	-3254
还需要	-3255
书面	-3256
加拿	-3257
占比	-3258
头的	-3259
寻求	-3260
尚未	-3261
版权	-3262
绩效	-3263
舒服	-3264
设有	-3265
这两	-3266
严重的	-3267
事业单位	-3268
举措	-3269
体检	-3270
大厅	-3271
审计	-3272
春节	-3273
牛皮	-3274
进程	-3275
遵循	-3276
防爆	-3277
地区的	-3278
日上午	-3279
都知道	-3280
▁”	-3281
扎实	-3282
系数	-3283
ia	-3284
iv	-3285
▁K	-3286
便于	-3287
养护	-3288
巩固	-3289
市委	-3290
影片	-3291
快递	-3292
村民	-3293
校长	-3294
界面	-3295
缺陷	-3296
需要的	-3297
~~	-3298
上传	-3299
单独	-3300
小孩	-3301
爱心	-3302
诸多	-3303
先进的	-3304
发动机	-3305
取得了	-3306
活动的	-3307
以下简称	-3308
元件	-3309
密码	-3310
接收	-3311
整治	-3312
日内	-3313
粮食	-3314
说法	-3315
门的	-3316
公司在	-3317
已成为	-3318
地铁	-3319
差距	-3320
潜力	-3321
▁除了	-3322
是中国	-3323
不住	-3324
广西	-3325
排除	-3326
放心	-3327
权威	-3328
增加了	-3329
的变化	-3330
同比增长	-3331
CC	-3332
怀孕	-3333
披露	-3334
首席	-3335
AS	-3336
不受	-3337
公示	-3338
制药	-3339
名为	-3340
▁不过	-3341
ur	-3342
们的	-3343
关联	-3344
妇女	-3345
宗旨	-3346
防范	-3347
我们就	-3348
是为了	-3349
的规定	-3350
he	-3351
▁J	-3352
出租	-3353
层的	-3354
日在	-3355
潜在	-3356
郑州	-3357
不应	-3358
债务	-3359
多了	-3360
对待	-3361
无数	-3362
板块	-3363
课题	-3364
身心	-3365
或其他	-3366
的最佳	-3367
进度	-3368
长度	-3369
▁另外	-3370
感受到	-3371
的核心	-3372
的精神	-3373
搜索引擎	-3374
▁四	-3375
三种	-3376
下了	-3377
代谢	-3378
公民	-3379
十一	-3380
合成	-3381
差别	-3382
毫米	-3383
的光	-3384
纠纷	-3385
给我	-3386
不仅仅	-3387
不超过	-3388
安全性	-3389
更大的	-3390
ation	-3391
地球	-3392
奥运	-3393
抓住	-3394
疼痛	-3395
边的	-3396
不错的	-3397
应该是	-3398
仅仅	-3399
公务	-3400
厚的	-3401
合物	-3402
官员	-3403
小吃	-3404
带有	-3405
常规	-3406
征收	-3407
热点	-3408
这就	-3409
使用者	-3410
多年的	-3411
为人	-3412
十六	-3413
央行	-3414
家中	-3415
某种	-3416
海南	-3417
账号	-3418
市政府	-3419
一句	-3420
二级	-3421
小心	-3422
属性	-3423
建成	-3424
扫描	-3425
澳门	-3426
福利	-3427
视为	-3428
超越	-3429
静电	-3430
条件的	-3431
合作伙伴	-3432
为止	-3433
今后	-3434
制的	-3435
开幕	-3436
开拓	-3437
心中	-3438
损伤	-3439
最多	-3440
流水	-3441
省委	-3442
脂肪	-3443
上班	-3444
你会	-3445
每月	-3446
转让	-3447
形成了	-3448
▁不	-3449
力和	-3450
宠物	-3451
山西	-3452
年前	-3453
批评	-3454
路面	-3455
成立于	-3456
监督管理	-3457
决赛	-3458
如有	-3459
成品	-3460
我也	-3461
某个	-3462
股市	-3463
博物馆	-3464
发布的	-3465
安全的	-3466
自身的	-3467
主流	-3468
优异	-3469
支援	-3470
检察	-3471
法人	-3472
用药	-3473
类的	-3474
荣获	-3475
后果	-3476
有趣	-3477
缴纳	-3478
贫困	-3479
and	-3480
gle	-3481
▁其实	-3482
会出现	-3483
加拿大	-3484
应用程序	-3485
身体健康	-3486
冲突	-3487
占地	-3488
回报	-3489
城乡	-3490
增值	-3491
的就是	-3492
也就是说	-3493
各界	-3494
打破	-3495
无限	-3496
日期	-3497
有个	-3498
磨损	-3499
立足	-3500
等多	-3501
精心	-3502
联动	-3503
通用	-3504
品牌的	-3505
完成了	-3506
数据库	-3507
不太	-3508
从业	-3509
分的	-3510
司机	-3511
大利	-3512
少数	-3513
手工	-3514
昨天	-3515
暂时	-3516
本书	-3517
牙齿	-3518
相似	-3519
粉尘	-3520
脱贫	-3521
节奏	-3522
镜头	-3523
▁因为	-3524
广东省	-3525
明显的	-3526
oogle	-3527
两次	-3528
修订	-3529
原始	-3530
当你	-3531
振动	-3532
格式	-3533
消化	-3534
著名	-3535
都市	-3536
一直在	-3537
上半年	-3538
患者的	-3539
是我们	-3540
本公司	-3541
的功能	-3542
的形式	-3543
美好的	-3544
市场监管	-3545
AM	-3546
乙烯	-3547
付出	-3548
典型	-3549
原创	-3550
只需	-3551
地质	-3552
成考	-3553
承认	-3554
魅力	-3555
也不是	-3556
的故事	-3557
类型的	-3558
ub	-3559
为此	-3560
便捷	-3561
办事	-3562
导师	-3563
懂得	-3564
日至	-3565
溶液	-3566
道理	-3567
乡村振兴	-3568
需要注意	-3569
广泛应用于	-3570
中学	-3571
从来	-3572
地图	-3573
容器	-3574
打算	-3575
每周	-3576
爱好	-3577
电信	-3578
秘密	-3579
网格	-3580
全新的	-3581
管理体系	-3582
ip	-3583
亲自	-3584
住宿	-3585
制冷	-3586
前期	-3587
昆明	-3588
的气	-3589
阻燃	-3590
飞机	-3591
介绍了	-3592
标准的	-3593
稳定的	-3594
这一点	-3595
学习教育	-3596
im	-3597
▁U	-3598
影像	-3599
流通	-3600
热水	-3601
生成	-3602
顾问	-3603
考虑到	-3604
▁张	-3605
付款	-3606
出行	-3607
携手	-3608
瞬间	-3609
询问	-3610
转载	-3611
---	-3612
小朋友	-3613
自己在	-3614
这句话	-3615
cm	-3616
凝聚	-3617
号码	-3618
合约	-3619
处的	-3620
害怕	-3621
并将	-3622
房产	-3623
气的	-3624
派遣	-3625
蒙古	-3626
西方	-3627
跟踪	-3628
预约	-3629
运动员	-3630
经济社会	-3631
贯彻落实	-3632
伟大	-3633
可达	-3634
当年	-3635
携带	-3636
架构	-3637
精确	-3638
钢板	-3639
验收	-3640
或者是	-3641
葡萄酒	-3642
ir	-3643
不见	-3644
作风	-3645
充足	-3646
匹配	-3647
吸附	-3648
圆满	-3649
座谈	-3650
收取	-3651
权的	-3652
私人	-3653
花费	-3654
让他	-3655
评选	-3656
贵州	-3657
赚钱	-3658
的风险	-3659
一套	-3660
不动	-3661
业内	-3662
全年	-3663
出售	-3664
发票	-3665
旨在	-3666
污泥	-3667
灌装	-3668
看了	-3669
载体	-3670
建筑物	-3671
微生物	-3672
有效地	-3673
等多种	-3674
数据显示	-3675
IN	-3676
ie	-3677
不停	-3678
份额	-3679
十七	-3680
扶持	-3681
澳大	-3682
电竞	-3683
零件	-3684
基础上	-3685
太阳能	-3686
意大利	-3687
深圳市	-3688
主要用于	-3689
。"	-3690
不起	-3691
依旧	-3692
在我	-3693
境外	-3694
日报	-3695
极大	-3696
江西	-3697
相反	-3698
精品	-3699
队员	-3700
▁最后	-3701
可根据	-3702
如果是	-3703
幼儿园	-3704
水处理	-3705
科学技术	-3706
体内	-3707
光伏	-3708
到来	-3709
取决	-3710
后面	-3711
地理	-3712
夏天	-3713
延续	-3714
涵盖	-3715
用电	-3716
竟然	-3717
精细	-3718
龙头	-3719
化妆品	-3720
怎么办	-3721
身份证	-3722
非常的	-3723
AC	-3724
▁和	-3725
上有	-3726
专科	-3727
味的	-3728
外国	-3729
对我	-3730
月的	-3731
轨道	-3732
下一步	-3733
比特币	-3734
的结果	-3735
最重要的	-3736
三分	-3737
依照	-3738
小型	-3739
杀菌	-3740
玩具	-3741
策划	-3742
而已	-3743
的原则	-3744
的第一	-3745
ebook	-3746
MP	-3747
不上	-3748
不出	-3749
单纯	-3750
实地	-3751
歌曲	-3752
民间	-3753
纺织	-3754
绿化	-3755
职能	-3756
▁今年	-3757
▁因此	-3758
大规模	-3759
有时候	-3760
▁月	-3761
外汇	-3762
外界	-3763
家电	-3764
小米	-3765
彩色	-3766
摩擦	-3767
相机	-3768
认同	-3769
冷却塔	-3770
▁王	-3771
冶金	-3772
去除	-3773
放松	-3774
门店	-3775
不可能	-3776
具体的	-3777
取决于	-3778
影响力	-3779
??	-3780
▁天	-3781
中和	-3782
出血	-3783
基督	-3784
扩张	-3785
持有	-3786
环境的	-3787
的社会	-3788
较大的	-3789
集团公司	-3790
op	-3791
qu	-3792
东北	-3793
人都	-3794
初心	-3795
可用	-3796
挽回	-3797
救援	-3798
未经	-3799
演讲	-3800
石化	-3801
话题	-3802
全自动	-3803
分别为	-3804
电子商务	-3805
来讲	-3806
渐渐	-3807
火车	-3808
等的	-3809
赔偿	-3810
过度	-3811
等领域	-3812
仓库	-3813
以此	-3814
克服	-3815
将来	-3816
就算	-3817
抓好	-3818
标识	-3819
次数	-3820
app	-3821
制造商	-3822
acebook	-3823
):	-3824
BA	-3825
▁要	-3826
一同	-3827
例子	-3828
公交	-3829
均为	-3830
指南	-3831
清除	-3832
用地	-3833
约定	-3834
膨胀	-3835
迎来	-3836
遭遇	-3837
随意	-3838
高兴	-3839
不容易	-3840
多年来	-3841
法律法规	-3842
判决	-3843
受益	-3844
学期	-3845
未能	-3846
洁净	-3847
肌肤	-3848
警察	-3849
陶瓷	-3850
饭店	-3851
国家和	-3852
高品质	-3853
厂房	-3854
噪音	-3855
地上	-3856
大师	-3857
有力	-3858
班牙	-3859
选项	-3860
野生	-3861
附件	-3862
所以在	-3863
此同时	-3864
不变	-3865
主机	-3866
刑事	-3867
口碑	-3868
市长	-3869
截止	-3870
护士	-3871
耐磨	-3872
聪明	-3873
要在	-3874
选购	-3875
马克	-3876
建设的	-3877
西班牙	-3878
像是	-3879
占据	-3880
即便	-3881
同期	-3882
命令	-3883
妹妹	-3884
小说	-3885
布置	-3886
心态	-3887
性好	-3888
早上	-3889
最为	-3890
理财	-3891
硬度	-3892
积分	-3893
经销	-3894
茶叶	-3895
资助	-3896
▁这个	-3897
与其他	-3898
喜欢的	-3899
感兴趣	-3900
艺术家	-3901
个体	-3902
任意	-3903
哪个	-3904
开设	-3905
当下	-3906
我校	-3907
是新	-3908
引起的	-3909
污染物	-3910
中国特色	-3911
核酸检测	-3912
假如	-3913
学家	-3914
小于	-3915
法的	-3916
泡沫	-3917
较多	-3918
退休	-3919
▁北京	-3920
为基础	-3921
发生了	-3922
东京	-3923
久的	-3924
女生	-3925
女足	-3926
慈善	-3927
接到	-3928
物业	-3929
负荷	-3930
边缘	-3931
▁今天	-3932
牛皮癣	-3933
的公司	-3934
这是一个	-3935
▁可	-3936
▁高	-3937
一款	-3938
两岸	-3939
供水	-3940
内涵	-3941
卓越	-3942
水中	-3943
的那	-3944
共产党	-3945
必须要	-3946
组织的	-3947
能力和	-3948
ut	-3949
入学	-3950
全身	-3951
决心	-3952
拿到	-3953
水质	-3954
看出	-3955
解放	-3956
解读	-3957
出现的	-3958
怎么样	-3959
成功的	-3960
一生	-3961
东南	-3962
克兰	-3963
再度	-3964
前来	-3965
前面	-3966
外交	-3967
室外	-3968
思政	-3969
推行	-3970
离合	-3971
等地	-3972
签约	-3973
能耗	-3974
这项	-3975
雕塑	-3976
之所以	-3977
如果您	-3978
更容易	-3979
FT	-3980
of	-3981
下一	-3982
不大	-3983
不敢	-3984
厘米	-3985
四大	-3986
回忆	-3987
心灵	-3988
文书	-3989
睡眠	-3990
签署	-3991
老化	-3992
致的	-3993
一部分	-3994
了解到	-3995
副书记	-3996
政府采购	-3997
没有任何	-3998
EM	-3999
乐观	-4000
乡镇	-4001
交付	-4002
导体	-4003
弯曲	-4004
快捷	-4005
既然	-4006
景区	-4007
热爱	-4008
讲座	-4009
隐藏	-4010
别人的	-4011
各部门	-4012
和技术	-4013
建立了	-4014
一带	-4015
中标	-4016
乃至	-4017
人和	-4018
伦敦	-4019
口感	-4020
外线	-4021
少林	-4022
暂停	-4023
欧盟	-4024
灾害	-4025
生育	-4026
职称	-4027
肌肉	-4028
视野	-4029
诗歌	-4030
说是	-4031
走了	-4032
▁第四	-4033
段时间	-4034
较好的	-4035
采用了	-4036
与其	-4037
价比	-4038
复制	-4039
实事	-4040
工序	-4041
日电	-4042
明天	-4043
校友	-4044
的美	-4045
线条	-4046
警方	-4047
试剂	-4048
门口	-4049
除此	-4050
预警	-4051
不管是	-4052
个性化	-4053
企业在	-4054
可靠性	-4055
在一个	-4056
看到了	-4057
结束后	-4058
白癜风的	-4059
EO	-4060
主导	-4061
增大	-4062
收藏	-4063
涂层	-4064
深受	-4065
议题	-4066
▁同时	-4067
不断的	-4068
有机会	-4069
的行为	-4070
售后服务	-4071
ee	-4072
一行	-4073
传媒	-4074
作物	-4075
公斤	-4076
关怀	-4077
制成	-4078
导演	-4079
并未	-4080
总局	-4081
水分	-4082
沉淀	-4083
温馨	-4084
爆炸	-4085
天然气	-4086
等特点	-4087
解决问题	-4088
ES	-4089
▁X	-4090
出具	-4091
创始	-4092
市政	-4093
慢性	-4094
济南	-4095
演出	-4096
级的	-4097
警告	-4098
基金会	-4099
解决了	-4100
传达	-4101
光纤	-4102
前沿	-4103
垂直	-4104
成年	-4105
播放	-4106
斗争	-4107
退出	-4108
***	-4109
一般来说	-4110
av	-4111
▁五	-4112
前后	-4113
国的	-4114
我不	-4115
我要	-4116
百万	-4117
种子	-4118
穿着	-4119
他们在	-4120
优秀的	-4121
是可以	-4122
市场主体	-4123
ax	-4124
▁)	-4125
气象	-4126
留学	-4127
破裂	-4128
调试	-4129
这时	-4130
▁本次	-4131
科学家	-4132
达到了	-4133
的一部分	-4134
▁m	-4135
一大	-4136
园林	-4137
夏季	-4138
度和	-4139
总监	-4140
秩序	-4141
立法	-4142
继承	-4143
缺少	-4144
长城	-4145
再加上	-4146
子公司	-4147
完整的	-4148
有一些	-4149
的空间	-4150
零部件	-4151
管理系统	-4152
债券	-4153
医保	-4154
县级	-4155
在新	-4156
淘汰	-4157
留在	-4158
翻译	-4159
锅炉	-4160
陷入	-4161
一定会	-4162
全过程	-4163
复杂的	-4164
显示屏	-4165
服务平台	-4166
一件	-4167
中山	-4168
为例	-4169
主场	-4170
估计	-4171
储备	-4172
冬奥	-4173
列入	-4174
初期	-4175
历程	-4176
大脑	-4177
生日	-4178
是一款	-4179
没想到	-4180
的标准	-4181
超声波	-4182
人力资源	-4183
sh	-4184
三十	-4185
不当	-4186
图书	-4187
在外	-4188
扩散	-4189
欧元	-4190
激素	-4191
特种	-4192
电阻	-4193
组件	-4194
考验	-4195
谢谢	-4196
魔法	-4197
▁国家	-4198
文化的	-4199
更高的	-4200
等相关	-4201
美丽的	-4202
注意事项	-4203
UV	-4204
▁如	-4205
不及	-4206
业界	-4207
反弹	-4208
焦点	-4209
神秘	-4210
股价	-4211
行情	-4212
见到	-4213
谨慎	-4214
及其他	-4215
技术和	-4216
的不同	-4217
控制系统	-4218
▁开	-4219
▁陈	-4220
下游	-4221
可爱	-4222
台中	-4223
奉献	-4224
招商	-4225
排查	-4226
淘宝	-4227
生动	-4228
立体	-4229
薄膜	-4230
螺旋	-4231
过敏	-4232
马拉	-4233
参加了	-4234
发生的	-4235
什么样的	-4236
CS	-4237
ob	-4238
▁人	-4239
一只	-4240
一片	-4241
但不	-4242
你要	-4243
分数	-4244
好评	-4245
幽默	-4246
汇报	-4247
的三	-4248
的手	-4249
真是	-4250
还没	-4251
这也	-4252
这场	-4253
阳台	-4254
一个月	-4255
的项目	-4256
上市公司	-4257
高速公路	-4258
XX	-4259
克斯	-4260
几种	-4261
圆形	-4262
数码	-4263
测定	-4264
纳米	-4265
试图	-4266
为企业	-4267
什么是	-4268
第一时间	-4269
越来越多的	-4270
▁"	-4271
劳务	-4272
定向	-4273
应在	-4274
得以	-4275
承载	-4276
烦恼	-4277
航天	-4278
行驶	-4279
面板	-4280
▁记者	-4281
健康的	-4282
内容的	-4283
存在的	-4284
您可以	-4285
党史学习教育	-4286
PV	-4287
二手	-4288
亲子	-4289
传奇	-4290
你在	-4291
分泌	-4292
又是	-4293
咱们	-4294
并对	-4295
投诉	-4296
权限	-4297
用量	-4298
直径	-4299
钢铁	-4300
主要有	-4301
数字经济	-4302
为准	-4303
信念	-4304
兴奋	-4305
内存	-4306
分解	-4307
地说	-4308
天地	-4309
子里	-4310
宁波	-4311
放电	-4312
机动	-4313
焦虑	-4314
秉承	-4315
站点	-4316
花园	-4317
若干	-4318
违规	-4319
▁关于	-4320
会影响	-4321
副主任	-4322
志愿者	-4323
的人生	-4324
降低了	-4325
In	-4326
一人	-4327
局面	-4328
疑问	-4329
纽约	-4330
衔接	-4331
频繁	-4332
高峰	-4333
只需要	-4334
常用的	-4335
是否有	-4336
目的是	-4337
等方式	-4338
让孩子	-4339
市场需求	-4340
ge	-4341
▁请	-4342
上线	-4343
变革	-4344
增进	-4345
奖金	-4346
富有	-4347
常用	-4348
广阔	-4349
情节	-4350
文学	-4351
狗狗	-4352
看法	-4353
给人	-4354
血压	-4355
为核心	-4356
人们的	-4357
企业和	-4358
加强对	-4359
的历史	-4360
篇文章	-4361
高新技术	-4362
ht	-4363
▁将	-4364
一项	-4365
主张	-4366
信仰	-4367
发热	-4368
师傅	-4369
直流	-4370
十四五	-4371
在全国	-4372
教育部	-4373
的中国	-4374
离不开	-4375
进出口	-4376
实际情况	-4377
资本市场	-4378
DP	-4379
发起	-4380
回复	-4381
增速	-4382
废弃	-4383
性强	-4384
情人	-4385
承办	-4386
的多	-4387
细分	-4388
诞生	-4389
进球	-4390
附加	-4391
▁美国	-4392
之日起	-4393
活动中	-4394
给我们	-4395
让自己	-4396
▁c	-4397
▁李	-4398
不宜	-4399
两大	-4400
倾向	-4401
却是	-4402
又有	-4403
坐在	-4404
头发	-4405
如同	-4406
客人	-4407
忘记	-4408
忽视	-4409
精力	-4410
一开始	-4411
完善的	-4412
性价比	-4413
的发生	-4414
那就是	-4415
管理部门	-4416
▁此	-4417
仿佛	-4418
减肥	-4419
吃饭	-4420
器材	-4421
固体	-4422
种种	-4423
等奖	-4424
节日	-4425
观光	-4426
谈判	-4427
预制	-4428
齐全	-4429
▁In	-4430
二氧化	-4431
交易所	-4432
蛋白质	-4433
转化为	-4434
人才培养	-4435
除此之外	-4436
▁b	-4437
严峻	-4438
会对	-4439
你就	-4440
公正	-4441
分辨	-4442
印发	-4443
取代	-4444
变频	-4445
商场	-4446
存放	-4447
暴露	-4448
研制	-4449
竞技	-4450
笔者	-4451
管辖	-4452
约束	-4453
配送	-4454
青睐	-4455
我们会	-4456
能力的	-4457
被称为	-4458
都需要	-4459
上级	-4460
不予	-4461
回顾	-4462
坚实	-4463
型材	-4464
客厅	-4465
无缝	-4466
班子	-4467
称号	-4468
起点	-4469
连锁	-4470
阿里	-4471
将继续	-4472
机构的	-4473
的一切	-4474
的优势	-4475
的所有	-4476
的材料	-4477
的高度	-4478
秘书长	-4479
耐腐蚀	-4480
?!	-4481
og	-4482
ov	-4483
▁万	-4484
个别	-4485
供电	-4486
地域	-4487
把它	-4488
曝光	-4489
泰国	-4490
蒸汽	-4491
财经	-4492
质疑	-4493
开发区	-4494
让他们	-4495
有一定的	-4496
的重要性	-4497
AB	-4498
ON	-4499
PA	-4500
ng	-4501
不对	-4502
从小	-4503
南方	-4504
在大	-4505
处分	-4506
展会	-4507
巴西	-4508
市区	-4509
我会	-4510
所示	-4511
扮演	-4512
本站	-4513
武术	-4514
注入	-4515
用车	-4516
迎接	-4517
高层	-4518
世界的	-4519
会导致	-4520
客户端	-4521
所谓的	-4522
时间内	-4523
润滑油	-4524
技术人员	-4525
技术创新	-4526
相关部门	-4527
▁那	-4528
个点	-4529
亚马	-4530
功夫	-4531
区分	-4532
叉车	-4533
在不	-4534
影视	-4535
托盘	-4536
新生	-4537
月底	-4538
油耗	-4539
装配	-4540
语文	-4541
顺序	-4542
▁然而	-4543
专注于	-4544
等工作	-4545
上帝	-4546
京东	-4547
光源	-4548
少女	-4549
录取	-4550
忽略	-4551
最初	-4552
证实	-4553
践行	-4554
遭受	-4555
重建	-4556
▁会议	-4557
▁这是	-4558
事务所	-4559
等行业	-4560
下滑	-4561
业的	-4562
两位	-4563
中介	-4564
传染	-4565
做得	-4566
别墅	-4567
加以	-4568
协商	-4569
抵达	-4570
放入	-4571
汇率	-4572
澳洲	-4573
燃气	-4574
的车	-4575
突发	-4576
虚假	-4577
返回	-4578
乌克兰	-4579
党中央	-4580
城市的	-4581
我公司	-4582
数据的	-4583
的状态	-4584
相当于	-4585
有限责任	-4586
仅有	-4587
共建	-4588
共识	-4589
其余	-4590
岩棉	-4591
意志	-4592
有权	-4593
球迷	-4594
用心	-4595
睡觉	-4596
联络	-4597
中心的	-4598
亚马逊	-4599
停车场	-4600
可以用	-4601
是没有	-4602
已经成为	-4603
政府信息	-4604
之为	-4605
之际	-4606
也没	-4607
交叉	-4608
前列	-4609
大厦	-4610
孕妇	-4611
感动	-4612
捐赠	-4613
接待	-4614
日晚	-4615
早就	-4616
有望	-4617
赋予	-4618
走出	-4619
适宜	-4620
飞行	-4621
为主题	-4622
的声音	-4623
离合器	-4624
se	-4625
为你	-4626
人家	-4627
从未	-4628
划分	-4629
加油	-4630
压器	-4631
噪声	-4632
平整	-4633
开了	-4634
标的	-4635
涉嫌	-4636
终止	-4637
触摸	-4638
象征	-4639
这对	-4640
▁当然	-4641
可用于	-4642
在国内	-4643
的学习	-4644
的经营	-4645
保险公司	-4646
ck	-4647
▁*	-4648
享有	-4649
大连	-4650
拍照	-4651
按钮	-4652
油漆	-4653
留意	-4654
纪律	-4655
荣耀	-4656
这家	-4657
进攻	-4658
钢材	-4659
ine	-4660
就没有	-4661
许可证	-4662
医疗机构	-4663
三是	-4664
低碳	-4665
光滑	-4666
创办	-4667
剂量	-4668
十大	-4669
只会	-4670
沈阳	-4671
的确	-4672
结算	-4673
身材	-4674
辛苦	-4675
▁St	-4676
和发展	-4677
国家级	-4678
工作室	-4679
背景下	-4680
特别是在	-4681
;(	-4682
__	-4683
不必	-4684
关节	-4685
冬天	-4686
向上	-4687
宏观	-4688
比亚	-4689
毫无	-4690
离心	-4691
签名	-4692
纳税	-4693
耐火	-4694
较少	-4695
追究	-4696
黄色	-4697
十二条	-4698
每一位	-4699
特殊的	-4700
玻璃钢	-4701
的前提	-4702
的活动	-4703
代表大会	-4704
党委书记	-4705
TM	-4706
中超	-4707
住了	-4708
共计	-4709
图案	-4710
场合	-4711
太大	-4712
如来	-4713
把手	-4714
明年	-4715
月经	-4716
样本	-4717
登陆	-4718
等于	-4719
食材	-4720
首要	-4721
▁近日	-4722
半导体	-4723
工作者	-4724
选择了	-4725
智能家居	-4726
本文摘要	-4727
消费者的	-4728
▁d	-4729
不含	-4730
人对	-4731
人气	-4732
几十	-4733
合肥	-4734
同行	-4735
外出	-4736
总额	-4737
昨日	-4738
板材	-4739
生涯	-4740
疲劳	-4741
的老	-4742
西部	-4743
见证	-4744
路灯	-4745
还将	-4746
那就	-4747
长大	-4748
主要的	-4749
时间的	-4750
的位置	-4751
真的是	-4752
销售额	-4753
▁p	-4754
买卖	-4755
信贷	-4756
分手	-4757
实质	-4758
当代	-4759
数位	-4760
潮流	-4761
礼物	-4762
转向	-4763
铸造	-4764
其中的	-4765
发生在	-4766
可分为	-4767
提出的	-4768
有关的	-4769
来看看	-4770
经济的	-4771
转型升级	-4772
一度	-4773
举报	-4774
乐趣	-4775
众生	-4776
信赖	-4777
受伤	-4778
在家	-4779
她说	-4780
必需	-4781
态势	-4782
操控	-4783
明的	-4784
易于	-4785
春天	-4786
权力	-4787
柴油	-4788
率先	-4789
编号	-4790
获奖	-4791
分公司	-4792
的现象	-4793
相同的	-4794
过滤器	-4795
”;	-4796
人与	-4797
听取	-4798
呼吁	-4799
喷涂	-4800
存款	-4801
学金	-4802
座椅	-4803
蒸发	-4804
高铁	-4805
创始人	-4806
少林寺	-4807
经销商	-4808
不断提高	-4809
智能制造	-4810
五个	-4811
仓储	-4812
代替	-4813
但我	-4814
信访	-4815
写的	-4816
即时	-4817
厦门	-4818
去做	-4819
堵塞	-4820
已在	-4821
心目	-4822
梳理	-4823
派出	-4824
游泳	-4825
的开	-4826
第六	-4827
耐心	-4828
遗传	-4829
部队	-4830
one	-4831
社会的	-4832
组成部分	-4833
▁图	-4834
上课	-4835
估值	-4836
出门	-4837
占有	-4838
嘉宾	-4839
安心	-4840
平常	-4841
庆祝	-4842
手动	-4843
新建	-4844
曲线	-4845
歌手	-4846
灰尘	-4847
用人	-4848
眼镜	-4849
督促	-4850
西亚	-4851
连结	-4852
ate	-4853
一次性	-4854
受欢迎	-4855
的态度	-4856
足够的	-4857
科技成果	-4858
不久	-4859
人文	-4860
冷凝	-4861
场上	-4862
均衡	-4863
平米	-4864
感知	-4865
杂质	-4866
的全	-4867
组建	-4868
罚款	-4869
里程	-4870
控制器	-4871
生产企业	-4872
Hz	-4873
ne	-4874
▁日	-4875
低的	-4876
填料	-4877
多项	-4878
姓名	-4879
就越	-4880
当初	-4881
指引	-4882
气氛	-4883
真诚	-4884
而钢	-4885
采暖	-4886
重组	-4887
陪伴	-4888
优质的	-4889
学校的	-4890
水平的	-4891
江苏省	-4892
ss	-4893
会被	-4894
内在	-4895
可谓	-4896
吃的	-4897
合并	-4898
后者	-4899
国企	-4900
外墙	-4901
宫颈	-4902
怀疑	-4903
推销	-4904
效能	-4905
次的	-4906
水电	-4907
牢固	-4908
男女	-4909
舞蹈	-4910
蓝色	-4911
被告	-4912
要想	-4913
较好	-4914
art	-4915
现阶段	-4916
可以根据	-4917
TO	-4918
ud	-4919
不然	-4920
地震	-4921
导航	-4922
尼克	-4923
极为	-4924
烘干	-4925
艰难	-4926
过多	-4927
选举	-4928
一样的	-4929
和管理	-4930
的话语	-4931
称之为	-4932
中国特色社会主义	-4933
EC	-4934
PD	-4935
▁前	-4936
一块	-4937
了我	-4938
先锋	-4939
十足	-4940
反射	-4941
安置	-4942
工件	-4943
广播	-4944
快的	-4945
按摩	-4946
搬家	-4947
浪漫	-4948
热烈	-4949
篮球	-4950
而出	-4951
耐用	-4952
长沙	-4953
净利润	-4954
所需的	-4955
正常的	-4956
的力量	-4957
的表现	-4958
自行车	-4959
运营商	-4960
需求的	-4961
有关规定	-4962
为客户提供	-4963
ak	-4964
▁–	-4965
书籍	-4966
人心	-4967
他是	-4968
你是	-4969
北方	-4970
口服	-4971
境界	-4972
待遇	-4973
心脏	-4974
欧美	-4975
热量	-4976
聊天	-4977
解答	-4978
赋能	-4979
远远	-4980
▁AI	-4981
了中国	-4982
做什么	-4983
元宇宙	-4984
及相关	-4985
在北京	-4986
型企业	-4987
威而钢	-4988
政策的	-4989
时代的	-4990
极大的	-4991
的孩子	-4992
组成的	-4993
进行的	-4994
工程建设	-4995
hi	-4996
一层	-4997
准则	-4998
前提	-4999
动画	-5000
应聘	-5001
店铺	-5002
废水	-5003
方针	-5004
春季	-5005
梦见	-5006
的两	-5007
科普	-5008
简化	-5009
航班	-5010
要把	-5011
诊疗	-5012
负面	-5013
车主	-5014
▁上海	-5015
减少了	-5016
应当在	-5017
是比较	-5018
能够在	-5019
积极开展	-5020
一轮	-5021
事物	-5022
困扰	-5023
墙面	-5024
头部	-5025
对照	-5026
微软	-5027
批发	-5028
投票	-5029
气泡	-5030
牵头	-5031
素养	-5032
约为	-5033
自考	-5034
进去	-5035
隔热	-5036
发展和	-5037
坚持以	-5038
联合国	-5039
适当的	-5040
商标代理	-5041
新冠病毒	-5042
这种情况	-5043
野生动物	-5044
有限责任公司	-5045
修剪	-5046
养成	-5047
古代	-5048
壮大	-5049
总会	-5050
我说	-5051
搭载	-5052
灵魂	-5053
留言	-5054
癌症	-5055
的长	-5056
退税	-5057
配方	-5058
首个	-5059
ows	-5060
不存在	-5061
值得一	-5062
发布了	-5063
复印件	-5064
就需要	-5065
是通过	-5066
环境中	-5067
的世界	-5068
笔记本	-5069
两者	-5070
交互	-5071
优雅	-5072
参展	-5073
塑造	-5074
形容	-5075
惊喜	-5076
意的	-5077
文本	-5078
斯坦	-5079
水产	-5080
理性	-5081
电线	-5082
组装	-5083
美联	-5084
辽宁	-5085
阻止	-5086
▁一个	-5087
严格的	-5088
意识到	-5089
推出了	-5090
有一天	-5091
的部分	-5092
管理和	-5093
与此同时	-5094
生产经营	-5095
乘坐	-5096
事宜	-5097
冻结	-5098
切换	-5099
器官	-5100
完毕	-5101
并与	-5102
强劲	-5103
数十	-5104
是从	-5105
玫瑰	-5106
眼前	-5107
空中	-5108
让她	-5109
调解	-5110
阿拉	-5111
也需要	-5112
可以让	-5113
多元化	-5114
按规定	-5115
环境下	-5116
的经济	-5117
自然资源	-5118
决议	-5119
办学	-5120
器件	-5121
定了	-5122
总量	-5123
收缩	-5124
牛奶	-5125
独家	-5126
甘肃	-5127
结论	-5128
调理	-5129
谈话	-5130
都没	-5131
阵容	-5132
雷达	-5133
频道	-5134
下一个	-5135
下来的	-5136
流动性	-5137
电视剧	-5138
的角度	-5139
澳大利亚	-5140
MA	-5141
iP	-5142
一支	-5143
全民	-5144
外表	-5145
失信	-5146
恐怖	-5147
找出	-5148
残留	-5149
类别	-5150
给他	-5151
起诉	-5152
远离	-5153
ail	-5154
▁如何	-5155
▁此次	-5156
中医药	-5157
也不能	-5158
设备和	-5159
▁:	-5160
▁由	-5161
之地	-5162
关爱	-5163
博览	-5164
在本	-5165
客服	-5166
支架	-5167
方可	-5168
漫画	-5169
电网	-5170
直观	-5171
看似	-5172
营商	-5173
落后	-5174
见的	-5175
还可	-5176
www	-5177
分析师	-5178
单位的	-5179
各样的	-5180
大家都	-5181
自然的	-5182
没有什么	-5183
if	-5184
pe	-5185
一周	-5186
事后	-5187
倡导	-5188
叶片	-5189
境内	-5190
复工	-5191
平板	-5192
平等	-5193
担忧	-5194
接地	-5195
新年	-5196
是用	-5197
模糊	-5198
精英	-5199
缓慢	-5200
辉煌	-5201
▁那么	-5202
不断地	-5203
个工作	-5204
关注的	-5205
有些人	-5206
住房公积金	-5207
==	-5208
一半	-5209
之上	-5210
作战	-5211
促销	-5212
公寓	-5213
冰雪	-5214
厕所	-5215
带给	-5216
幅度	-5217
恋爱	-5218
抗疫	-5219
文档	-5220
民营	-5221
海关	-5222
碰撞	-5223
移送	-5224
车身	-5225
降解	-5226
平台的	-5227
交通运输	-5228
各项工作	-5229
管理工作	-5230
”)	-5231
也被	-5232
会使	-5233
作家	-5234
十条	-5235
对你	-5236
导入	-5237
永久	-5238
燃油	-5239
物体	-5240
的风	-5241
科目	-5242
简短	-5243
表彰	-5244
豪华	-5245
随机	-5246
ISO	-5247
只不过	-5248
影响到	-5249
的意思	-5250
的用户	-5251
建立健全	-5252
金融机构	-5253
主力	-5254
发酵	-5255
启发	-5256
国足	-5257
弘扬	-5258
正当	-5259
的海	-5260
站式	-5261
著作	-5262
走势	-5263
跨越	-5264
还不	-5265
业务的	-5266
处理的	-5267
就不会	-5268
服务业	-5269
相对于	-5270
研讨会	-5271
等因素	-5272
山东成考	-5273
管理办法	-5274
▁金	-5275
严禁	-5276
也为	-5277
共赢	-5278
历经	-5279
投放	-5280
报表	-5281
抵抗	-5282
文物	-5283
流畅	-5284
灯光	-5285
生殖	-5286
用了	-5287
简洁	-5288
粉末	-5289
细则	-5290
身为	-5291
较小	-5292
送到	-5293
遭到	-5294
减速机	-5295
在我国	-5296
浏览器	-5297
的价值	-5298
的品牌	-5299
工程项目	-5300
新能源汽车	-5301
入选	-5302
叫做	-5303
在了	-5304
我和	-5305
手指	-5306
最早	-5307
热门	-5308
相处	-5309
真相	-5310
网易	-5311
若是	-5312
说到	-5313
道的	-5314
但是在	-5315
怎样的	-5316
本赛季	-5317
该如何	-5318
快速发展	-5319
自学考试	-5320
indows	-5321
EL	-5322
OC	-5323
一看	-5324
商店	-5325
坚守	-5326
多名	-5327
审理	-5328
密集	-5329
山区	-5330
开工	-5331
想起	-5332
正面	-5333
步伐	-5334
珍惜	-5335
饮水	-5336
保证了	-5337
信息的	-5338
内蒙古	-5339
多少钱	-5340
大家的	-5341
已经在	-5342
广泛的	-5343
皮肤病	-5344
系统中	-5345
中国人民	-5346
交所	-5347
亮点	-5348
仍在	-5349
供暖	-5350
做事	-5351
冰箱	-5352
剂的	-5353
半场	-5354
周末	-5355
图形	-5356
均可	-5357
太平	-5358
想像	-5359
成像	-5360
房价	-5361
挤塑	-5362
早餐	-5363
更能	-5364
标记	-5365
清水	-5366
源头	-5367
破碎	-5368
科创	-5369
车子	-5370
长江	-5371
随之	-5372
ard	-5373
很多的	-5374
很重要	-5375
效率高	-5376
规范化	-5377
研究中心	-5378
过程中的	-5379
一道	-5380
动员	-5381
各方	-5382
回去	-5383
宿舍	-5384
幕墙	-5385
得很	-5386
志强	-5387
意愿	-5388
无奈	-5389
杠杆	-5390
树木	-5391
范畴	-5392
营运	-5393
诈骗	-5394
酒精	-5395
单位和	-5396
残疾人	-5397
理事会	-5398
的国家	-5399
科学院	-5400
过去的	-5401
管理人员	-5402
跨境电商	-5403
高度重视	-5404
之旅	-5405
书写	-5406
内地	-5407
合伙	-5408
地块	-5409
地坪	-5410
大批	-5411
好友	-5412
我院	-5413
旗舰	-5414
温室	-5415
的天	-5416
监会	-5417
SUV	-5418
▁使用	-5419
为用户	-5420
发布会	-5421
变压器	-5422
合作社	-5423
如果不	-5424
常态化	-5425
新一代	-5426
比如说	-5427
的人才	-5428
紫外线	-5429
社会保险	-5430
:(	-5431
▁Q	-5432
严肃	-5433
佛山	-5434
做为	-5435
前言	-5436
多么	-5437
多人	-5438
开创	-5439
彰显	-5440
排出	-5441
更改	-5442
杰出	-5443
气密	-5444
石墨	-5445
稳步	-5446
规章	-5447
详情	-5448
防御	-5449
陌生	-5450
顶级	-5451
了许多	-5452
原因是	-5453
在美国	-5454
处理器	-5455
山东省	-5456
差不多	-5457
希望能	-5458
疾病的	-5459
的投资	-5460
的最大	-5461
目前的	-5462
行为的	-5463
为您提供	-5464
等方面的	-5465
之间的距离	-5466
ST	-5467
亮相	-5468
作了	-5469
修行	-5470
升高	-5471
含义	-5472
售价	-5473
复发	-5474
外贸	-5475
守护	-5476
景点	-5477
洗涤	-5478
现货	-5479
私募	-5480
穿越	-5481
苗木	-5482
西北	-5483
钢筋	-5484
门诊	-5485
ark	-5486
一般的	-5487
专业化	-5488
两个人	-5489
对自己	-5490
综合性	-5491
▁近年来	-5492
为一体的	-5493
全国各地	-5494
MN	-5495
一对	-5496
中所	-5497
但这	-5498
余人	-5499
元的	-5500
固化	-5501
家属	-5502
居家	-5503
感的	-5504
战胜	-5505
无效	-5506
星球	-5507
气温	-5508
照射	-5509
环氧	-5510
立场	-5511
级别	-5512
胎儿	-5513
脱离	-5514
越大	-5515
化合物	-5516
开发的	-5517
形成的	-5518
新产品	-5519
来源于	-5520
的人员	-5521
的其他	-5522
的比赛	-5523
的通知	-5524
结构的	-5525
还是要	-5526
合法权益	-5527
组织开展	-5528
可持续发展	-5529
CA	-5530
不妨	-5531
体重	-5532
发作	-5533
后再	-5534
品类	-5535
复兴	-5536
孵化	-5537
导热	-5538
将是	-5539
年级	-5540
总理	-5541
手中	-5542
源于	-5543
的花	-5544
第七	-5545
脚步	-5546
解除	-5547
马来	-5548
了一种	-5549
来进行	-5550
的建设	-5551
老师的	-5552
较强的	-5553
OR	-5554
SD	-5555
▁就	-5556
一台	-5557
分工	-5558
区内	-5559
参会	-5560
在其	-5561
外形	-5562
审判	-5563
审美	-5564
排行	-5565
暗示	-5566
月中	-5567
橱柜	-5568
理工	-5569
等到	-5570
管的	-5571
至关	-5572
西南	-5573
近视	-5574
进了	-5575
遗产	-5576
难点	-5577
集装	-5578
飞鸟	-5579
高清	-5580
也比较	-5581
产生了	-5582
价值的	-5583
在内的	-5584
才能够	-5585
的理念	-5586
日常生活	-5587
pt	-5588
产物	-5589
人人	-5590
会儿	-5591
合力	-5592
宗教	-5593
将以	-5594
年内	-5595
所属	-5596
放大	-5597
机组	-5598
涨幅	-5599
温和	-5600
灭火	-5601
精致	-5602
糖尿	-5603
联邦	-5604
营收	-5605
让您	-5606
轻轻	-5607
队长	-5608
上海市	-5609
伴随着	-5610
办公厅	-5611
发电机	-5612
的具体	-5613
的支持	-5614
老年人	-5615
个人资料	-5616
心目中的	-5617
一日	-5618
交往	-5619
作文	-5620
促使	-5621
信誉	-5622
借款	-5623
化解	-5624
吉林	-5625
外壳	-5626
大棚	-5627
实的	-5628
家用	-5629
小微	-5630
感冒	-5631
感恩	-5632
救助	-5633
欢乐	-5634
调度	-5635
过后	-5636
长远	-5637
▁这些	-5638
很高的	-5639
提升了	-5640
现有的	-5641
理事长	-5642
资源的	-5643
了解一下	-5644
党员干部	-5645
生物安全	-5646
PI	-5647
TT	-5648
▁您	-5649
为其	-5650
包裹	-5651
口腔	-5652
和高	-5653
地暖	-5654
域名	-5655
基准	-5656
备受	-5657
多方	-5658
姑娘	-5659
总之	-5660
文献	-5661
料理	-5662
构造	-5663
每位	-5664
玩法	-5665
的可	-5666
精选	-5667
老公	-5668
色素	-5669
造价	-5670
间接	-5671
BIM	-5672
ity	-5673
同样的	-5674
呈现出	-5675
找到了	-5676
的方向	-5677
的时代	-5678
的结构	-5679
该公司	-5680
环境保护	-5681
两国	-5682
从中	-5683
优越	-5684
全会	-5685
前行	-5686
卫星	-5687
友谊	-5688
善于	-5689
多多	-5690
家庄	-5691
得知	-5692
恐怕	-5693
我市	-5694
援助	-5695
时事	-5696
柔软	-5697
温柔	-5698
男孩	-5699
看得	-5700
社员	-5701
维度	-5702
脉冲	-5703
般的	-5704
表情	-5705
表格	-5706
语音	-5707
题材	-5708
题目	-5709
风趣	-5710
了一些	-5711
受到了	-5712
国际化	-5713
朋友们	-5714
然后再	-5715
的健康	-5716
耐高温	-5717
生产厂家	-5718
经济效益	-5719
行业协会	-5720
IA	-5721
与会	-5722
业者	-5723
以内	-5724
侵犯	-5725
信托	-5726
光学	-5727
光明	-5728
全县	-5729
医治	-5730
在上	-5731
地毯	-5732
愿景	-5733
挥发	-5734
是将	-5735
机电	-5736
极端	-5737
漏洞	-5738
目光	-5739
累积	-5740
脱硫	-5741
转子	-5742
门窗	-5743
阐述	-5744
est	-5745
十三条	-5746
该项目	-5747
QQ	-5748
乳腺	-5749
五十	-5750
产后	-5751
你能	-5752
光线	-5753
内置	-5754
冲洗	-5755
出于	-5756
包皮	-5757
发射	-5758
学费	-5759
小姐	-5760
居然	-5761
已被	-5762
恐惧	-5763
游乐	-5764
犀利	-5765
盲目	-5766
看的	-5767
稍微	-5768
立方	-5769
线索	-5770
解析	-5771
话语	-5772
量化	-5773
门槛	-5774
ang	-5775
会产生	-5776
功能的	-5777
工程的	-5778
打电话	-5779
河南省	-5780
电动机	-5781
糖尿病	-5782
经历了	-5783
可以选择	-5784
Google	-5785
集团有限公司	-5786
两天	-5787
侵权	-5788
假期	-5789
又能	-5790
名义	-5791
向前	-5792
品的	-5793
家乡	-5794
导电	-5795
带头	-5796
帮忙	-5797
应力	-5798
征求	-5799
微量	-5800
恶劣	-5801
数的	-5802
期内	-5803
生理	-5804
用作	-5805
的有	-5806
短短	-5807
观赏	-5808
走访	-5809
转入	-5810
这条	-5811
阳市	-5812
除非	-5813
PLC	-5814
主持人	-5815
做一个	-5816
关系的	-5817
增值税	-5818
就开始	-5819
就是在	-5820
并通过	-5821
形式的	-5822
是如何	-5823
来自于	-5824
个人信息	-5825
如果没有	-5826
的可能性	-5827
管理制度	-5828
非常重要	-5829
CT	-5830
ex	-5831
mg	-5832
亏损	-5833
倾斜	-5834
几次	-5835
口味	-5836
台南	-5837
各式	-5838
哥哥	-5839
大道	-5840
开店	-5841
手法	-5842
承接	-5843
掉了	-5844
无机	-5845
曾在	-5846
未知	-5847
正如	-5848
比起	-5849
灵敏	-5850
简牍	-5851
组长	-5852
而来	-5853
而非	-5854
脱落	-5855
脸上	-5856
落在	-5857
调控	-5858
额外	-5859
骨干	-5860
ash	-5861
为中心	-5862
取得的	-5863
员工的	-5864
学习的	-5865
最后一	-5866
最高的	-5867
的城市	-5868
的设备	-5869
许多人	-5870
农业农村	-5871
加密货币	-5872
培训学校	-5873
具有良好的	-5874
:《	-5875
nd	-5876
▁f	-5877
上网	-5878
不吃	-5879
几点	-5880
势力	-5881
困境	-5882
均有	-5883
想着	-5884
截图	-5885
既有	-5886
注明	-5887
液晶	-5888
深深	-5889
着手	-5890
社保	-5891
诗人	-5892
负载	-5893
进取	-5894
NFT	-5895
公众号	-5896
及以上	-5897
展现出	-5898
检察院	-5899
的一年	-5900
著名的	-5901
飞鸟下载	-5902
人民代表大会	-5903
:‘	-5904
io	-5905
三维	-5906
不安	-5907
不止	-5908
专属	-5909
业态	-5910
中美	-5911
乐高	-5912
也都	-5913
买了	-5914
人事	-5915
付费	-5916
佛教	-5917
债权	-5918
冷冻	-5919
发光	-5920
土工	-5921
填充	-5922
年后	-5923
所述	-5924
新华	-5925
月初	-5926
符号	-5927
要用	-5928
轻易	-5929
这份	-5930
这部	-5931
造就	-5932
难道	-5933
App	-5934
ong	-5935
十五条	-5936
告诉你	-5937
新发展	-5938
河北省	-5939
添加剂	-5940
电子烟	-5941
的了解	-5942
一带一路	-5943
作为一个	-5944
值得一提	-5945
可以帮助	-5946
航空公司	-5947
MS	-5948
之时	-5949
也让	-5950
保安	-5951
分会	-5952
加息	-5953
原件	-5954
发改	-5955
句子	-5956
处处	-5957
小儿	-5958
年纪	-5959
度假	-5960
涉案	-5961
清华	-5962
灯具	-5963
牢记	-5964
细腻	-5965
观音	-5966
说不	-5967
遗憾	-5968
防守	-5969
领取	-5970
PVC	-5971
ell	-5972
不仅是	-5973
中国人	-5974
价值观	-5975
其他的	-5976
台湾的	-5977
在网上	-5978
平台上	-5979
应用的	-5980
注意到	-5981
的大小	-5982
部门的	-5983
里面的	-5984
人民群众	-5985
法律责任	-5986
up	-5987
▁s	-5988
一座	-5989
东莞	-5990
严谨	-5991
之内	-5992
体质	-5993
保密	-5994
借由	-5995
冒险	-5996
加重	-5997
勇气	-5998
单车	-5999
变动	-6000
国土	-6001
国庆	-6002
国资	-6003
大事	-6004
定点	-6005
履历	-6006
师范	-6007
廉政	-6008
授予	-6009
搬运	-6010
擅长	-6011
渴望	-6012
煤矿	-6013
的抗	-6014
破产	-6015
终身	-6016
绘画	-6017
都被	-6018
采样	-6019
颁发	-6020
饱和	-6021
▁一般	-6022
为我们	-6023
和企业	-6024
新材料	-6025
最新的	-6026
程度的	-6027
让学生	-6028
设计和	-6029
身体的	-6030
通过对	-6031
针对性	-6032
二氧化碳	-6033
疫情防控工作	-6034
▁Y	-6035
代价	-6036
侦查	-6037
公证	-6038
农场	-6039
制动	-6040
务必	-6041
增添	-6042
外资	-6043
好奇	-6044
斯特	-6045
湾区	-6046
牺牲	-6047
福州	-6048
紧紧	-6049
该等	-6050
谈到	-6051
过渡	-6052
隧道	-6053
颜值	-6054
食堂	-6055
ice	-6056
个人的	-6057
个小时	-6058
人们对	-6059
今年的	-6060
会不会	-6061
保证金	-6062
性文件	-6063
的创新	-6064
的合作	-6065
质量和	-6066
这两个	-6067
不断提升	-6068
充分利用	-6069
GS	-6070
▁无	-6071
上门	-6072
不时	-6073
主角	-6074
二人	-6075
从此	-6076
力争	-6077
助推	-6078
合规	-6079
当日	-6080
意向	-6081
执照	-6082
摆脱	-6083
教导	-6084
此类	-6085
溶剂	-6086
繁荣	-6087
经纪	-6088
聚合	-6089
舆论	-6090
要是	-6091
视角	-6092
走到	-6093
这段	-6094
邮箱	-6095
金门	-6096
门户	-6097
阀门	-6098
除外	-6099
韧性	-6100
黑暗	-6101
催化剂	-6102
有必要	-6103
的速度	-6104
还包括	-6105
高性能	-6106
可以直接	-6107
营商环境	-6108
领导小组	-6109
Ch	-6110
co	-6111
不忘	-6112
代办	-6113
仿真	-6114
兼容	-6115
减排	-6116
刹车	-6117
复苏	-6118
大方	-6119
天天	-6120
寒冷	-6121
得了	-6122
报送	-6123
提起	-6124
标杆	-6125
温泉	-6126
焚烧	-6127
管线	-6128
被人	-6129
被动	-6130
要点	-6131
试管	-6132
质押	-6133
资深	-6134
赞助	-6135
车站	-6136
过高	-6137
通胀	-6138
那时	-6139
错过	-6140
阻碍	-6141
高档	-6142
鸡蛋	-6143
▁简介	-6144
下半年	-6145
变成了	-6146
在生产	-6147
完美的	-6148
将成为	-6149
年以来	-6150
才可以	-6151
推出的	-6152
理想的	-6153
马克思	-6154
什么时候	-6155
我们需要	-6156
智慧城市	-6157
CI	-6158
ml	-6159
▁用	-6160
不愿	-6161
不适	-6162
了对	-6163
人格	-6164
仅供	-6165
借鉴	-6166
其在	-6167
分开	-6168
在前	-6169
开车	-6170
当局	-6171
征程	-6172
必定	-6173
战队	-6174
星级	-6175
更快	-6176
本网	-6177
满满	-6178
激情	-6179
率为	-6180
的双	-6181
职场	-6182
见面	-6183
追踪	-6184
那是	-6185
阿尔	-6186
预案	-6187
GDP	-6188
ack	-6189
一季度	-6190
到现在	-6191
副作用	-6192
办实事	-6193
和国家	-6194
性能好	-6195
所说的	-6196
把自己	-6197
报记者	-6198
的各种	-6199
的有效	-6200
的样子	-6201
短视频	-6202
等优点	-6203
系统和	-6204
一直以来	-6205
服务机构	-6206
经济增长	-6207
这个时候	-6208
PH	-6209
▁她	-6210
中最	-6211
主营	-6212
二维	-6213
出产	-6214
勇敢	-6215
占用	-6216
友好	-6217
哈哈	-6218
土耳	-6219
坚固	-6220
天线	-6221
契机	-6222
局势	-6223
干预	-6224
底层	-6225
弥补	-6226
政法	-6227
旁边	-6228
无关	-6229
日后	-6230
机等	-6231
沦为	-6232
河流	-6233
激动	-6234
男生	-6235
移门	-6236
简便	-6237
职位	-6238
随便	-6239
青海	-6240
顶尖	-6241
骨架	-6242
IPO	-6243
▁经过	-6244
不确定	-6245
公务员	-6246
可通过	-6247
四川省	-6248
的知识	-6249
国家标准	-6250
机械设备	-6251
行业发展	-6252
常务委员会	-6253
ev	-6254
上来	-6255
两侧	-6256
仍有	-6257
假日	-6258
假设	-6259
先行	-6260
夜间	-6261
大楼	-6262
定价	-6263
弟子	-6264
排气	-6265
撰写	-6266
早在	-6267
水量	-6268
洗衣	-6269
的对	-6270
谋划	-6271
货运	-6272
钢琴	-6273
饮用	-6274
ord	-6275
一起来	-6276
不符合	-6277
创业板	-6278
十四条	-6279
可以将	-6280
吸引了	-6281
在这种	-6282
安徽省	-6283
实践中	-6284
是怎么	-6285
的重点	-6286
美国的	-6287
▁据了解	-6288
建筑面积	-6289
飞鸟下载器	-6290
EP	-6291
。)	-6292
不高	-6293
内饰	-6294
发力	-6295
多久	-6296
少的	-6297
开源	-6298
得分	-6299
料的	-6300
泄漏	-6301
疯狂	-6302
细化	-6303
缴费	-6304
船舶	-6305
赛车	-6306
足以	-6307
转速	-6308
附属	-6309
饲养	-6310
NMN	-6311
ers	-6312
▁针对	-6313
个百分	-6314
之一的	-6315
在全球	-6316
它们的	-6317
已经是	-6318
广州市	-6319
的女人	-6320
高效的	-6321
严格按照	-6322
为什么要	-6323
了解更多	-6324
信息技术	-6325
快速增长	-6326
组织实施	-6327
进行自我	-6328
ix	-6329
zu	-6330
▁。	-6331
一一	-6332
不懂	-6333
个案	-6334
佩戴	-6335
储罐	-6336
再到	-6337
回头	-6338
大专	-6339
就被	-6340
急性	-6341
恶意	-6342
情怀	-6343
我对	-6344
整车	-6345
比重	-6346
汇聚	-6347
约翰	-6348
细致	-6349
萤石	-6350
警示	-6351
说了	-6352
购置	-6353
▁Ch	-6354
▁企业	-6355
▁第五	-6356
与中国	-6357
也非常	-6358
十六条	-6359
同一个	-6360
没有人	-6361
的一项	-6362
第二个	-6363
预制菜	-6364
脱贫攻坚	-6365
项目建设	-6366
值得一提的是	-6367
LP	-6368
’,	-6369
▁原	-6370
中等	-6371
但却	-6372
体温	-6373
修正	-6374
冠状	-6375
出货	-6376
压机	-6377
参照	-6378
在校	-6379
安静	-6380
宽松	-6381
巴黎	-6382
文艺	-6383
栏目	-6384
母乳	-6385
第八	-6386
荷兰	-6387
记住	-6388
跟随	-6389
辈子	-6390
达标	-6391
额度	-6392
香味	-6393
ort	-6394
▁这种	-6395
东南亚	-6396
为中国	-6397
为主要	-6398
产业园	-6399
年开始	-6400
总承包	-6401
----	-6402
社会责任	-6403
▁以上就是	-6404
▁t	-6405
不行	-6406
串串	-6407
主演	-6408
了吗	-6409
亚太	-6410
住院	-6411
党组	-6412
哲学	-6413
多达	-6414
实木	-6415
戏剧	-6416
收录	-6417
放到	-6418
无意	-6419
沿着	-6420
流体	-6421
潮湿	-6422
癫痫	-6423
编写	-6424
编织	-6425
衰老	-6426
阴道	-6427
ess	-6428
企业家	-6429
体现了	-6430
十一条	-6431
感染者	-6432
我们也	-6433
无人机	-6434
树立起	-6435
独立的	-6436
的操作	-6437
给自己	-6438
这时候	-6439
发明专利	-6440
可以使用	-6441
可以看到	-6442
更进一步	-6443
服务中心	-6444
的前提下	-6445
▁监察机关	-6446
中国共产党	-6447
Facebook	-6448
MI	-6449
上看	-6450
二零	-6451
十几	-6452
变为	-6453
古典	-6454
可惜	-6455
堪称	-6456
奖项	-6457
局限	-6458
开业	-6459
我省	-6460
接入	-6461
来电	-6462
极其	-6463
极限	-6464
水库	-6465
水性	-6466
法轮	-6467
海岸	-6468
相继	-6469
质感	-6470
身的	-6471
过大	-6472
近年	-6473
也是一	-6474
压缩机	-6475
可实现	-6476
在哪里	-6477
在我们	-6478
座谈会	-6479
开发者	-6480
机动车	-6481
碳中和	-6482
第二次	-6483
被调查	-6484
高科技	-6485
屏蔽移门	-6486
的使用寿命	-6487
ai	-6488
▁▲	-6489
上年	-6490
偶尔	-6491
务实	-6492
升降	-6493
另有	-6494
商城	-6495
失业	-6496
妊娠	-6497
家装	-6498
尤为	-6499
巨头	-6500
市值	-6501
忠诚	-6502
抽象	-6503
数值	-6504
的无	-6505
的爱	-6506
私家	-6507
等人	-6508
答复	-6509
纪委	-6510
续航	-6511
菜单	-6512
衡量	-6513
越好	-6514
选取	-6515
颁奖	-6516
颈鹿	-6517
ick	-6518
nap	-6519
▁如今	-6520
为自己	-6521
关键字	-6522
十七条	-6523
女性的	-6524
完成后	-6525
整体的	-6526
普通的	-6527
的经验	-6528
的食物	-6529
详细的	-6530
起来的	-6531
个百分点	-6532
占地面积	-6533
卫生健康	-6534
地方政府	-6535
燃料电池	-6536
以防	-6537
出一	-6538
分支	-6539
到处	-6540
包容	-6541
国防	-6542
多位	-6543
失望	-6544
并以	-6545
得多	-6546
性别	-6547
慰问	-6548
挤压	-6549
水和	-6550
疗法	-6551
的地	-6552
省市	-6553
立案	-6554
蛋糕	-6555
西门	-6556
阻力	-6557
限度	-6558
风味	-6559
首选	-6560
ERP	-6561
▁尽管	-6562
一直是	-6563
人生的	-6564
准确的	-6565
出色的	-6566
和使用	-6567
对中国	-6568
小小的	-6569
心中的	-6570
投标人	-6571
本身的	-6572
的温度	-6573
积极性	-6574
让大家	-6575
主要包括	-6576
不容	-6577
中午	-6578
伤口	-6579
余额	-6580
儒雅	-6581
光电	-6582
凌晨	-6583
分娩	-6584
分成	-6585
制约	-6586
助理	-6587
变的	-6588
各有	-6589
增多	-6590
字体	-6591
当今	-6592
抛光	-6593
暴力	-6594
气息	-6595
水泵	-6596
浸泡	-6597
相较	-6598
租车	-6599
签证	-6600
考量	-6601
英镑	-6602
萝卜	-6603
角逐	-6604
试试	-6605
院士	-6606
雕刻	-6607
韩式	-6608
万美元	-6609
加盟商	-6610
因此在	-6611
看上去	-6612
石家庄	-6613
研究员	-6614
示范区	-6615
不仅可以	-6616
数据中心	-6617
系列产品	-6618
重要讲话	-6619
新冠肺炎疫情	-6620
CM	-6621
ok	-6622
▁六	-6623
三天	-6624
事先	-6625
他对	-6626
军队	-6627
加深	-6628
助攻	-6629
国立	-6630
尼亚	-6631
巴士	-6632
微笑	-6633
政协	-6634
斯拉	-6635
早日	-6636
最具	-6637
最小	-6638
格兰	-6639
桃园	-6640
浓缩	-6641
演练	-6642
热电	-6643
特朗	-6644
犹豫	-6645
用力	-6646
竣工	-6647
紧凑	-6648
花的	-6649
都将	-6650
金钱	-6651
首页	-6652
▁很多	-6653
产业化	-6654
副会长	-6655
化学品	-6656
土耳其	-6657
就是要	-6658
强烈的	-6659
成熟的	-6660
的作品	-6661
的新型	-6662
研究的	-6663
陕西省	-6664
中央空调	-6665
工作经验	-6666
建设项目	-6667
Fi	-6668
▁再	-6669
一时	-6670
三星	-6671
三级	-6672
入了	-6673
出色	-6674
又称	-6675
合计	-6676
并于	-6677
开口	-6678
无比	-6679
普洱	-6680
正好	-6681
泰山	-6682
着重	-6683
结晶	-6684
至上	-6685
色谱	-6686
裁判	-6687
赛道	-6688
还原	-6689
隆重	-6690
集合	-6691
非洲	-6692
领袖	-6693
ast	-6694
不会有	-6695
和中国	-6696
感觉到	-6697
挤塑板	-6698
是目前	-6699
有许多	-6700
比较好	-6701
特朗普	-6702
的政策	-6703
的概念	-6704
等各种	-6705
选择的	-6706
都是在	-6707
防腐木	-6708
改革开放	-6709
的最佳时机	-6710
──	-6711
▁a	-6712
一口	-6713
你想	-6714
兰达	-6715
凭证	-6716
华人	-6717
吃了	-6718
城县	-6719
天使	-6720
奇怪	-6721
弟弟	-6722
弹簧	-6723
持久	-6724
民国	-6725
法官	-6726
现行	-6727
看待	-6728
稀释	-6729
简约	-6730
end	-6731
net	-6732
充满了	-6733
如果有	-6734
犀利士	-6735
的一次	-6736
的出现	-6737
的存在	-6738
等功能	-6739
答案是	-6740
而不失	-6741
近几年	-6742
这件事	-6743
采访时	-6744
副总经理	-6745
LO	-6746
▁/	-6747
▁、	-6748
一方	-6749
不满	-6750
人性	-6751
价的	-6752
低压	-6753
供热	-6754
保管	-6755
公式	-6756
兼顾	-6757
冷藏	-6758
出水	-6759
列表	-6760
名词	-6761
咳嗽	-6762
哪怕	-6763
因其	-6764
因应	-6765
墙体	-6766
多彩	-6767
富士	-6768
常委	-6769
建构	-6770
情报	-6771
摆放	-6772
活泼	-6773
活着	-6774
熟练	-6775
牛肉	-6776
筛选	-6777
跌幅	-6778
路的	-6779
闸门	-6780
陪同	-6781
靠近	-6782
▁of	-6783
▁其次	-6784
以确保	-6785
刚开始	-6786
原来的	-6787
发改委	-6788
因为它	-6789
开展了	-6790
很强的	-6791
思政课	-6792
没什么	-6793
等情况	-6794
速度快	-6795
中华民族	-6796
公共卫生	-6797
告诉记者	-6798
智能手机	-6799
电动气密	-6800
经济社会发展	-6801
▁Z	-6802
五大	-6803
传送	-6804
出国	-6805
利于	-6806
制裁	-6807
加班	-6808
号召	-6809
同等	-6810
后台	-6811
听说	-6812
岁月	-6813
底线	-6814
忽然	-6815
我司	-6816
所能	-6817
指令	-6818
效力	-6819
新药	-6820
有益	-6821
标注	-6822
治愈	-6823
流入	-6824
演唱	-6825
螺栓	-6826
讯息	-6827
论证	-6828
话说	-6829
诠释	-6830
起的	-6831
超出	-6832
长达	-6833
难得	-6834
首批	-6835
all	-6836
ech	-6837
ure	-6838
一般在	-6839
副总裁	-6840
十八条	-6841
小程序	-6842
就已经	-6843
常委会	-6844
建设和	-6845
有一种	-6846
的消息	-6847
表现为	-6848
首先要	-6849
黑色素	-6850
专业技术	-6851
介绍一下	-6852
北京时间	-6853
NT	-6854
▁·	-6855
▁华	-6856
一期	-6857
了吧	-6858
双向	-6859
发泡	-6860
器具	-6861
国安	-6862
场白	-6863
处方	-6864
大盘	-6865
天空	-6866
对抗	-6867
少量	-6868
当作	-6869
拿着	-6870
搜集	-6871
是为	-6872
有两	-6873
本市	-6874
模范	-6875
白天	-6876
线性	-6877
股指	-6878
致使	-6879
花卉	-6880
行使	-6881
记载	-6882
身高	-6883
通行	-6884
面部	-6885
之前的	-6886
产业的	-6887
另一种	-6888
台北市	-6889
合作的	-6890
图书馆	-6891
奖学金	-6892
服务和	-6893
的主题	-6894
的组织	-6895
等离子	-6896
质量的	-6897
这一切	-6898
可以立刻	-6899
离子交换	-6900
一定程度上	-6901
律师事务所	-6902
RO	-6903
一来	-6904
书中	-6905
交给	-6906
初中	-6907
可怕	-6908
回事	-6909
坚强	-6910
复习	-6911
大地	-6912
大胆	-6913
夫妇	-6914
学的	-6915
搬迁	-6916
敌人	-6917
整形	-6918
文中	-6919
无可	-6920
时段	-6921
构件	-6922
步行	-6923
电站	-6924
简直	-6925
要比	-6926
评分	-6927
调动	-6928
防潮	-6929
但由于	-6930
分别是	-6931
制定了	-6932
发现了	-6933
因为我	-6934
安装在	-6935
摄像头	-6936
的压力	-6937
的成本	-6938
的教学	-6939
第二天	-6940
能力强	-6941
认识到	-6942
新冠疫情	-6943
这些问题	-6944
RC	-6945
VR	-6946
▁最	-6947
。[	-6948
下方	-6949
乐园	-6950
入境	-6951
剩余	-6952
加剧	-6953
双手	-6954
国投	-6955
完了	-6956
将军	-6957
常识	-6958
开花	-6959
感和	-6960
才有	-6961
掌控	-6962
文的	-6963
有过	-6964
核实	-6965
桌椅	-6966
毫不	-6967
疗效	-6968
病的	-6969
眼光	-6970
社群	-6971
蔓延	-6972
越多	-6973
追溯	-6974
遇见	-6975
铺设	-6976
▁其中	-6977
一般为	-6978
代理商	-6979
公开发	-6980
找不到	-6981
有一定	-6982
百分之	-6983
的大型	-6984
等多个	-6985
长颈鹿	-6986
心目中的形象	-6987
师生之间的距离	-6988
AA	-6989
DS	-6990
cn	-6991
――	-6992
▁黄	-6993
买家	-6994
储能	-6995
博会	-6996
外面	-6997
大局	-6998
富含	-6999
将近	-7000
拆除	-7001
排列	-7002
朝鲜	-7003
本着	-7004
极具	-7005
海港	-7006
登场	-7007
粗糙	-7008
网点	-7009
街头	-7010
静态	-7011
风扇	-7012
▁最近	-7013
创业者	-7014
句风趣	-7015
老百姓	-7016
世界各地	-7017
健康发展	-7018
可以说是	-7019
场白是新	-7020
工作会议	-7021
积极参与	-7022
简短的几	-7023
儒雅的话语	-7024
幽默而不失	-7025
白癜风患者	-7026
自己在学生	-7027
规范性文件	-7028
可以立刻缩短	-7029
场白是新教师	-7030
进行自我推销	-7031
简短的几句风趣	-7032
树立起自己在学生	-7033
幽默而不失儒雅的话语	-7034
进行自我推销的最佳时机	-7035
可以立刻缩短师生之间的距离	-7036
树立起自己在学生心目中的形象	-7037
▁注	-7038
他就	-7039
入侵	-7040
初始	-7041
到期	-7042
大战	-7043
宽度	-7044
平静	-7045
战术	-7046
户口	-7047
抗体	-7048
杜绝	-7049
枢纽	-7050
某某	-7051
气流	-7052
法兰	-7053
流传	-7054
畅通	-7055
界的	-7056
的原	-7057
皇帝	-7058
神奇	-7059
进来	-7060
风雨	-7061
”,“	-7062
代表的	-7063
安全和	-7064
小时内	-7065
展示了	-7066
市场化	-7067
废弃物	-7068
我认为	-7069
报废车	-7070
指数为	-7071
最重要	-7072
甚至是	-7073
的需要	-7074
科学的	-7075
▁事实上	-7076
不一样的	-7077
企业发展	-7078
冠状病毒	-7079
思想政治	-7080
战略合作	-7081
科学知识	-7082
马来西亚	-7083
Cl	-7084
ue	-7085
。’	-7086
众人	-7087
但他	-7088
保守	-7089
修养	-7090
受众	-7091
同类	-7092
否认	-7093
子上	-7094
年限	-7095
幸运	-7096
店面	-7097
强势	-7098
授课	-7099
概率	-7100
武装	-7101
瑞尔	-7102
短暂	-7103
福音	-7104
租金	-7105
自从	-7106
自律	-7107
过往	-7108
这座	-7109
邻居	-7110
鉴于	-7111
钢丝	-7112
阳性	-7113
隔音	-7114
黄河	-7115
▁台湾	-7116
▁日本	-7117
以下的	-7118
和工作	-7119
留学生	-7120
管理局	-7121
严格执行	-7122
Al	-7123
OT	-7124
主观	-7125
你不	-7126
全文	-7127
再行	-7128
凸显	-7129
分包	-7130
分级	-7131
化疗	-7132
受害	-7133
变量	-7134
可供	-7135
哪家	-7136
在他	-7137
大致	-7138
它在	-7139
实训	-7140
就好	-7141
层层	-7142
心思	-7143
或不	-7144
手的	-7145
电极	-7146
电量	-7147
秉持	-7148
秸秆	-7149
结局	-7150
网址	-7151
要么	-7152
配有	-7153
长久	-7154
饰演	-7155
不同于	-7156
主人公	-7157
举办的	-7158
会造成	-7159
创新的	-7160
十九条	-7161
即使是	-7162
在选择	-7163
所有人	-7164
的颜色	-7165
经验的	-7166
这是一	-7167
县级以上	-7168
这意味着	-7169
业有限公司	-7170
政府信息公开	-7171
)”	-7172
▁?	-7173
▁若	-7174
一把	-7175
丢失	-7176
中断	-7177
主播	-7178
乘客	-7179
乡土	-7180
偏差	-7181
入住	-7182
厉害	-7183
又要	-7184
叶轮	-7185
同仁	-7186
员的	-7187
塑胶	-7188
外科	-7189
大人	-7190
完结	-7191
审议	-7192
宣告	-7193
工期	-7194
应有	-7195
意图	-7196
故意	-7197
时应	-7198
时效	-7199
曼联	-7200
本届	-7201
校区	-7202
核算	-7203
桌面	-7204
混乱	-7205
港口	-7206
热的	-7207
直至	-7208
相连	-7209
纸箱	-7210
落于	-7211
评定	-7212
责令	-7213
起重	-7214
转动	-7215
迁移	-7216
雇主	-7217
预告	-7218
ass	-7219
▁产品	-7220
上面的	-7221
优良的	-7222
体现在	-7223
副院长	-7224
国家队	-7225
存在着	-7226
时间和	-7227
有力的	-7228
的比例	-7229
表面的	-7230
需要在	-7231
面临的	-7232
alax	-7233
hone	-7234
▁或	-7235
专辑	-7236
候选	-7237
全区	-7238
冲压	-7239
卧室	-7240
在中	-7241
夜晚	-7242
姿态	-7243
客场	-7244
就医	-7245
峰会	-7246
愉快	-7247
技艺	-7248
教研	-7249
文旅	-7250
有何	-7251
有无	-7252
林业	-7253
正义	-7254
水管	-7255
汇总	-7256
洽谈	-7257
用以	-7258
的上	-7259
督察	-7260
矫正	-7261
短信	-7262
端的	-7263
起步	-7264
载荷	-7265
途中	-7266
量大	-7267
降温	-7268
集群	-7269
面包	-7270
预先	-7271
饱满	-7272
lay	-7273
云计算	-7274
唯一的	-7275
国民党	-7276
奥运会	-7277
完成的	-7278
对人体	-7279
已经有	-7280
我希望	-7281
省政府	-7282
都不会	-7283
生产工艺	-7284
alaxy	-7285
世间	-7286
产值	-7287
人间	-7288
击败	-7289
化和	-7290
发售	-7291
发货	-7292
奶奶	-7293
婚礼	-7294
完备	-7295
就诊	-7296
市级	-7297
平凡	-7298
度高	-7299
性与	-7300
情的	-7301
折扣	-7302
拉力	-7303
招募	-7304
接纳	-7305
教室	-7306
旅程	-7307
沙发	-7308
玉米	-7309
移植	-7310
繁殖	-7311
美味	-7312
脚手	-7313
路口	-7314
迈肯	-7315
透光	-7316
邮政	-7317
防渗	-7318
雨水	-7319
首都	-7320
龙江	-7321
之后的	-7322
人员在	-7323
几个月	-7324
制作的	-7325
基本的	-7326
年以上	-7327
汉兰达	-7328
行业中	-7329
赢得了	-7330
▁Pro	-7331
就是一个	-7332
社会保障	-7333
萤石互联	-7334
迈肯瑞尔	-7335
......”	-7336
一无	-7337
一群	-7338
不便	-7339
仅为	-7340
位的	-7341
修建	-7342
减小	-7343
出资	-7344
函数	-7345
加装	-7346
可控	-7347
和对	-7348
她在	-7349
妥善	-7350
展望	-7351
引人	-7352
捕捉	-7353
本周	-7354
欲望	-7355
水准	-7356
注目	-7357
激活	-7358
热线	-7359
独自	-7360
用手	-7361
管制	-7362
耶稣	-7363
聚会	-7364
色列	-7365
薄弱	-7366
西兰	-7367
视力	-7368
速率	-7369
配偶	-7370
链条	-7371
集聚	-7372
预备	-7373
一站式	-7374
与我们	-7375
全面的	-7376
博览会	-7377
并不能	-7378
成立了	-7379
是我国	-7380
是需要	-7381
毕业后	-7382
游戏的	-7383
网络上	-7384
发展趋势	-7385
营业执照	-7386
还是比较	-7387
这样才能	-7388
PU	-7389
不懈	-7390
东风	-7391
会让	-7392
典礼	-7393
冷静	-7394
制订	-7395
南海	-7396
可信	-7397
台商	-7398
品味	-7399
四周	-7400
地形	-7401
嫌疑	-7402
实战	-7403
屋顶	-7404
很久	-7405
得出	-7406
患有	-7407
按时	-7408
接线	-7409
普查	-7410
来临	-7411
查阅	-7412
款项	-7413
武校	-7414
气质	-7415
溶解	-7416
炎症	-7417
爱国	-7418
现已	-7419
百家	-7420
的重	-7421
皇家	-7422
缩小	-7423
衍生	-7424
西藏	-7425
订阅	-7426
越高	-7427
车载	-7428
较差	-7429
鲜明	-7430
our	-7431
ram	-7432
不允许	-7433
公布的	-7434
分辨率	-7435
利用率	-7436
发言人	-7437
各方面	-7438
在今年	-7439
在进行	-7440
它可以	-7441
开始了	-7442
强度高	-7443
收益率	-7444
有一点	-7445
湖南省	-7446
的最新	-7447
积极的	-7448
空间的	-7449
脚手架	-7450
认为是	-7451
这样做	-7452
集中在	-7453
商业模式	-7454
操作系统	-7455
正常运行	-7456
电子邮件	-7457
还有一个	-7458
数字化转型	-7459
更重要的是	-7460
▁开场白是新教师	-7461
电动气密屏蔽移门	-7462
BM	-7463
bo	-7464
ry	-7465
▁l	-7466
不去	-7467
与之	-7468
互助	-7469
但也	-7470
剩下	-7471
加盖	-7472
医护	-7473
姿势	-7474
定时	-7475
家政	-7476
少儿	-7477
底部	-7478
废物	-7479
播出	-7480
更要	-7481
楼宇	-7482
火箭	-7483
热闹	-7484
片区	-7485
病因	-7486
石头	-7487
科室	-7488
米兰	-7489
给出	-7490
美金	-7491
脸书	-7492
行车	-7493
讲究	-7494
调味	-7495
路边	-7496
轮胎	-7497
辖区	-7498
进出	-7499
间隔	-7500
额定	-7501
风采	-7502
▁据悉	-7503
不合格	-7504
可靠的	-7505
失去了	-7506
如来藏	-7507
如果在	-7508
所以说	-7509
控制的	-7510
时间为	-7511
最后的	-7512
未成年	-7513
的功效	-7514
网站上	-7515
证监会	-7516
体系建设	-7517
客户提供	-7518
工程施工	-7519
这样一个	-7520
",	-7521
DA	-7522
VP	-7523
ey	-7524
一声	-7525
中年	-7526
中方	-7527
争夺	-7528
佛法	-7529
做成	-7530
储蓄	-7531
分割	-7532
动手	-7533
原有	-7534
吉祥	-7535
吸尘	-7536
和你	-7537
和大	-7538
媒介	-7539
小镇	-7540
店的	-7541
手册	-7542
护肤	-7543
挂牌	-7544
改性	-7545
显现	-7546
智力	-7547
服饰	-7548
栽培	-7549
满了	-7550
球的	-7551
疑似	-7552
短板	-7553
规矩	-7554
角落	-7555
锁定	-7556
顺畅	-7557
决定了	-7558
劳动力	-7559
叙利亚	-7560
向社会	-7561
很可能	-7562
必不可	-7563
我知道	-7564
打造出	-7565
搅拌站	-7566
更加的	-7567
涉及到	-7568
满意的	-7569
的网络	-7570
联合会	-7571
这么多	-7572
不必要的	-7573
同时也是	-7574
安全管理	-7575
对外开放	-7576
尤其是在	-7577
有很大的	-7578
监督检查	-7579
被调查人	-7580
货币政策	-7581
高校毕业生	-7582
高新技术企业	-7583
ps	-7584
。【	-7585
不成	-7586
两家	-7587
为本	-7588
五一	-7589
介入	-7590
农户	-7591
回转	-7592
在内	-7593
垄断	-7594
宁静	-7595
对他	-7596
想想	-7597
报纸	-7598
拼音	-7599
接头	-7600
是大	-7601
术后	-7602
检修	-7603
海运	-7604
猕猴	-7605
瓷砖	-7606
石材	-7607
硫酸	-7608
碰到	-7609
自来	-7610
预订	-7611
风口	-7612
香气	-7613
int	-7614
ran	-7615
不好的	-7616
不影响	-7617
也能够	-7618
保险人	-7619
做出了	-7620
充分的	-7621
指导下	-7622
教育的	-7623
月中旬	-7624
爱好者	-7625
特别的	-7626
特色的	-7627
电视台	-7628
的成功	-7629
真实的	-7630
研究会	-7631
经济学	-7632
给孩子	-7633
董事会	-7634
要加强	-7635
该产品	-7636
财政部	-7637
领先的	-7638
创新发展	-7639
实施方案	-7640
客户需求	-7641
工艺美术	-7642
绝大多数	-7643
资产管理	-7644
Windows	-7645
IV	-7646
kg	-7647
▁马	-7648
一百	-7649
不清	-7650
何时	-7651
保卫	-7652
发文	-7653
取出	-7654
后备	-7655
天堂	-7656
容积	-7657
将为	-7658
尔夫	-7659
录音	-7660
彩票	-7661
愿望	-7662
房的	-7663
打工	-7664
改为	-7665
施行	-7666
权重	-7667
永恒	-7668
流失	-7669
海报	-7670
片的	-7671
生效	-7672
用工	-7673
省份	-7674
石灰	-7675
立柱	-7676
网红	-7677
艺人	-7678
要做	-7679
走在	-7680
赶紧	-7681
这首	-7682
麻醉	-7683
默默	-7684
一定是	-7685
三个月	-7686
你知道	-7687
使用时	-7688
党组织	-7689
办事处	-7690
只有在	-7691
当地的	-7692
必须在	-7693
指的是	-7694
注意力	-7695
生命的	-7696
的分析	-7697
目前已	-7698
看到的	-7699
经营者	-7700
统一的	-7701
规模的	-7702
那时候	-7703
不仅仅是	-7704
公共服务	-7705
小微企业	-7706
注意的是	-7707
用户体验	-7708
防火涂料	-7709
Co	-7710
kV	-7711
▁周	-7712
▁苏	-7713
们在	-7714
低价	-7715
依次	-7716
修补	-7717
准入	-7718
剖析	-7719
受损	-7720
哪种	-7721
塔罗	-7722
太太	-7723
帝国	-7724
成套	-7725
我很	-7726
打包	-7727
支柱	-7728
机体	-7729
模特	-7730
每人	-7731
气动	-7732
生死	-7733
生气	-7734
电价	-7735
电解	-7736
筹备	-7737
获悉	-7738
蓬勃	-7739
讨厌	-7740
诱惑	-7741
贯穿	-7742
这边	-7743
除去	-7744
zui	-7745
不低于	-7746
以外的	-7747
伟大的	-7748
和生活	-7749
导致的	-7750
就这样	-7751
届中国	-7752
年中国	-7753
教职工	-7754
有任何	-7755
毫米波	-7756
治疗的	-7757
法轮功	-7758
的日子	-7759
真实性	-7760
这两种	-7761
这里的	-7762
短时间内	-7763
科学研究	-7764
人大常委会	-7765
非常重要的	-7766
%-	-7767
GO	-7768
▁h	-7769
▁刘	-7770
一颗	-7771
万亿	-7772
中毒	-7773
为期	-7774
丽的	-7775
众所	-7776
去找	-7777
发掘	-7778
可视	-7779
善良	-7780
字母	-7781
将对	-7782
就来	-7783
度过	-7784
开通	-7785
很小	-7786
德里	-7787
提及	-7788
既是	-7789
柔性	-7790
格外	-7791
油的	-7792
泉水	-7793
津贴	-7794
滑雪	-7795
烹饪	-7796
爱你	-7797
牧师	-7798
珍珠	-7799
甲苯	-7800
男友	-7801
称作	-7802
蒸馏	-7803
视网	-7804
身影	-7805
送达	-7806
适时	-7807
透气	-7808
金山	-7809
默认	-7810
▁按照	-7811
一句话	-7812
不论是	-7813
了一下	-7814
典型的	-7815
原则上	-7816
在整个	-7817
在日本	-7818
应及时	-7819
政府的	-7820
要及时	-7821
重庆市	-7822
长三角	-7823
高水平	-7824
▁为什么	-7825
成立以来	-7826
每个人的	-7827
领导干部	-7828
TV	-7829
▁全	-7830
▁它	-7831
▁等	-7832
与人	-7833
互通	-7834
以太	-7835
保鲜	-7836
修缮	-7837
倡议	-7838
光泽	-7839
列车	-7840
加州	-7841
卵巢	-7842
唯有	-7843
商机	-7844
图纸	-7845
地热	-7846
处在	-7847
多为	-7848
头痛	-7849
宾馆	-7850
对称	-7851
就连	-7852
尽早	-7853
工况	-7854
年会	-7855
床上	-7856
得益	-7857
情景	-7858
我都	-7859
手臂	-7860
打磨	-7861
抱着	-7862
拿出	-7863
有色	-7864
柠檬	-7865
检疫	-7866
模仿	-7867
涂装	-7868
港澳	-7869
瑞典	-7870
的内	-7871
的女	-7872
耐热	-7873
自有	-7874
致富	-7875
误差	-7876
财物	-7877
逾期	-7878
间隙	-7879
一般是	-7880
保护区	-7881
太多的	-7882
当我们	-7883
成本低	-7884
我相信	-7885
等信息	-7886
等部门	-7887
错误的	-7888
希望大家	-7889
网站建设	-7890
BG	-7891
SO	-7892
me	-7893
sp	-7894
一遍	-7895
严厉	-7896
任职	-7897
供需	-7898
净水	-7899
利的	-7900
又不	-7901
古老	-7902
只好	-7903
后卫	-7904
好事	-7905
如图	-7906
山水	-7907
开支	-7908
强迫	-7909
抗击	-7910
探究	-7911
文创	-7912
机和	-7913
环球	-7914
磨削	-7915
简要	-7916
罗马	-7917
考证	-7918
边界	-7919
长得	-7920
露出	-7921
are	-7922
ore	-7923
ost	-7924
▁剧情	-7925
▁可以	-7926
区域内	-7927
各单位	-7928
在实际	-7929
市场中	-7930
技术与	-7931
本项目	-7932
每一次	-7933
浙江省	-7934
的业务	-7935
的性能	-7936
的话题	-7937
空压机	-7938
造成了	-7939
不断发展	-7940
于一体的	-7941
国家安全	-7942
现代诗歌	-7943
生态环境保护	-7944
PL	-7945
RE	-7946
SS	-7947
oh	-7948
万的	-7949
三国	-7950
不下	-7951
了两	-7952
五金	-7953
从严	-7954
住在	-7955
借此	-7956
克力	-7957
刚才	-7958
勇于	-7959
千年	-7960
同性	-7961
吸烟	-7962
和小	-7963
基建	-7964
尔斯	-7965
序列	-7966
店家	-7967
恒温	-7968
恶化	-7969
拜仁	-7970
探测	-7971
新高	-7972
是你	-7973
条码	-7974
楼梯	-7975
模样	-7976
灵感	-7977
烧烤	-7978
的家	-7979
笔字	-7980
答应	-7981
纪检	-7982
能让	-7983
英超	-7984
行销	-7985
诉求	-7986
语法	-7987
豆浆	-7988
高频	-7989
ach	-7990
件事情	-7991
你们的	-7992
公安局	-7993
内部的	-7994
前列腺	-7995
媒体的	-7996
意义的	-7997
我们是	-7998
所在地	-7999
有两个	-8000
朋友的	-8001
清晰的	-8002
热处理	-8003
的一致	-8004
的人们	-8005
的处理	-8006
的游戏	-8007
的责任	-8008
的费用	-8009
目的地	-8010
组成员	-8011
美联储	-8012
这一次	-8013
有所帮助	-8014
相关信息	-8015
▁海	-8016
一番	-8017
不只	-8018
主轴	-8019
产妇	-8020
住民	-8021
制备	-8022
力学	-8023
南北	-8024
史上	-8025
号线	-8026
哈尔	-8027
尴尬	-8028
延迟	-8029
或缺	-8030
投注	-8031
拓宽	-8032
拼搏	-8033
排队	-8034
果汁	-8035
查处	-8036
民事	-8037
清新	-8038
火花	-8039
病原	-8040
监理	-8041
着的	-8042
科院	-8043
糟糕	-8044
缺口	-8045
美学	-8046
聚氨	-8047
肥料	-8048
裂缝	-8049
迫切	-8050
配电	-8051
酒吧	-8052
长安	-8053
难免	-8054
WAN	-8055
今天的	-8056
以色列	-8057
公交车	-8058
在上海	-8059
对应的	-8060
才发现	-8061
改变了	-8062
特斯拉	-8063
生产和	-8064
福建省	-8065
表现出	-8066
通过了	-8067
万平方米	-8068
工作效率	-8069
有所不同	-8070
研究人员	-8071
各种各样的	-8072
白癜风医院	-8073
新时代中国特色社会主义	-8074
HD	-8075
丧失	-8076
买入	-8077
了几	-8078
亮度	-8079
亿品	-8080
优于	-8081
公用	-8082
副本	-8083
北市	-8084
博客	-8085
合一	-8086
在那	-8087
宋江	-8088
就行	-8089
并购	-8090
战场	-8091
拆解	-8092
捐款	-8093
提问	-8094
新台	-8095
无害	-8096
某一	-8097
柔和	-8098
样式	-8099
款式	-8100
注塑	-8101
灾难	-8102
焊缝	-8103
班级	-8104
用在	-8105
病症	-8106
盖板	-8107
社团	-8108
种族	-8109
稳健	-8110
者和	-8111
脆弱	-8112
脾气	-8113
艰苦	-8114
萎缩	-8115
试用	-8116
黑客	-8117
ina	-8118
man	-8119
▁第六	-8120
为广大	-8121
为目标	-8122
你需要	-8123
出版社	-8124
合伙人	-8125
吸引力	-8126
多样化	-8127
学生们	-8128
排行榜	-8129
材料和	-8130
的因素	-8131
的心情	-8132
知名度	-8133
被执行	-8134
黑龙江	-8135
决策部署	-8136
创新能力	-8137
生产基地	-8138
行政部门	-8139
"。	-8140
ik	-8141
上演	-8142
不佳	-8143
不被	-8144
产学	-8145
传导	-8146
传说	-8147
佰艺	-8148
供货	-8149
出厂	-8150
出有	-8151
切断	-8152
加之	-8153
十字	-8154
卫浴	-8155
可行	-8156
回馈	-8157
孤独	-8158
安慰	-8159
宣讲	-8160
对口	-8161
录像	-8162
我有	-8163
投保	-8164
投影	-8165
持股	-8166
损耗	-8167
插入	-8168
改正	-8169
敢于	-8170
松动	-8171
气味	-8172
没人	-8173
滚动	-8174
演绎	-8175
看好	-8176
矿业	-8177
神的	-8178
米的	-8179
自在	-8180
花了	-8181
要多	-8182
调用	-8183
车道	-8184
那一	-8185
键盘	-8186
震荡	-8187
龙腾	-8188
HTT	-8189
ber	-8190
per	-8191
▁二是	-8192
▁至于	-8193
不是很	-8194
不稳定	-8195
在不同	-8196
在设计	-8197
有不少	-8198
的一面	-8199
的事实	-8200
的优点	-8201
的好处	-8202
的销售	-8203
网格化	-8204
进入了	-8205
遇到了	-8206
专业从事	-8207
亿品佰艺	-8208
固定资产	-8209
我们必须	-8210
确诊病例	-8211
等一系列	-8212
职业教育	-8213
AG	-8214
▁w	-8215
▁其	-8216
▁水	-8217
一事	-8218
人身	-8219
会给	-8220
值的	-8221
做过	-8222
先河	-8223
入围	-8224
六个	-8225
养生	-8226
凤凰	-8227
刚好	-8228
动能	-8229
双层	-8230
双眼	-8231
发扬	-8232
叠加	-8233
同伴	-8234
周知	-8235
四年	-8236
因子	-8237
圣经	-8238
坚信	-8239
头脑	-8240
实效	-8241
密的	-8242
小我	-8243
年夜	-8244
幻想	-8245
彰化	-8246
影院	-8247
得上	-8248
微型	-8249
报酬	-8250
描写	-8251
时常	-8252
海峡	-8253
病变	-8254
监狱	-8255
确立	-8256
磷酸	-8257
端子	-8258
签字	-8259
纯粹	-8260
纸质	-8261
而被	-8262
致辞	-8263
行人	-8264
裁决	-8265
路由	-8266
那天	-8267
酸性	-8268
阁下	-8269
阴性	-8270
陈述	-8271
限定	-8272
限额	-8273
领军	-8274
ace	-8275
ist	-8276
中全会	-8277
博士后	-8278
原有的	-8279
反渗透	-8280
土工膜	-8281
培训班	-8282
大面积	-8283
已完成	-8284
文化和	-8285
新媒体	-8286
新闻网	-8287
明确了	-8288
特定的	-8289
阶段性	-8290
中共中央	-8291
加快推进	-8292
劳务派遣	-8293
培训机构	-8294
注册资本	-8295
社会各界	-8296
结合起来	-8297
领导班子	-8298
CD	-8299
PM	-8300
Sc	-8301
▁★	-8302
▁答	-8303
一本	-8304
下行	-8305
不禁	-8306
亮的	-8307
出场	-8308
前三	-8309
办案	-8310
区间	-8311
反思	-8312
可使	-8313
审视	-8314
将被	-8315
尔特	-8316
师资	-8317
带的	-8318
恰当	-8319
搜寻	-8320
新车	-8321
毛巾	-8322
油墨	-8323
油脂	-8324
火爆	-8325
用到	-8326
电厂	-8327
痕迹	-8328
督导	-8329
砂浆	-8330
硬化	-8331
纸张	-8332
组的	-8333
胸部	-8334
色泽	-8335
送给	-8336
错了	-8337
队友	-8338
面料	-8339
饮酒	-8340
鲜花	-8341
ink	-8342
一年的	-8343
不适合	-8344
产品和	-8345
从而使	-8346
代表着	-8347
以来的	-8348
其实是	-8349
在工作	-8350
多功能	-8351
新一轮	-8352
新模式	-8353
有机物	-8354
比较高	-8355
由中国	-8356
的意见	-8357
阶段的	-8358
党的十九	-8359
城市管理	-8360
建筑设计	-8361
是最好的	-8362
使用寿命长	-8363
EV	-8364
TC	-8365
▁杨	-8366
一杯	-8367
世代	-8368
主打	-8369
之心	-8370
入手	-8371
前者	-8372
千元	-8373
千里	-8374
发烧	-8375
复产	-8376
大叔	-8377
天猫	-8378
姐姐	-8379
宁夏	-8380
崛起	-8381
弱势	-8382
描绘	-8383
敬请	-8384
新品	-8385
期权	-8386
机身	-8387
洗车	-8388
深耕	-8389
游玩	-8390
监护	-8391
穿过	-8392
篇章	-8393
统治	-8394
老旧	-8395
而又	-8396
草案	-8397
螺丝	-8398
袭击	-8399
见解	-8400
迫害	-8401
递交	-8402
钱包	-8403
铸铁	-8404
阴影	-8405
首发	-8406
▁一是	-8407
主要由	-8408
开发商	-8409
最多的	-8410
猕猴桃	-8411
的想法	-8412
真的很	-8413
而成的	-8414
腐蚀性	-8415
获得的	-8416
非常好	-8417
也越来越	-8418
共同努力	-8419
广泛应用	-8420
应当按照	-8421
线上线下	-8422
试管婴儿	-8423
高等教育	-8424
)》	-8425
上游	-8426
东部	-8427
中之	-8428
乌鲁	-8429
亲切	-8430
全日	-8431
印花	-8432
原子	-8433
在与	-8434
在对	-8435
大奖	-8436
大豆	-8437
妙的	-8438
展出	-8439
并发	-8440
底盘	-8441
开辟	-8442
异味	-8443
打卡	-8444
扬州	-8445
拥抱	-8446
指向	-8447
明了	-8448
暖气	-8449
核查	-8450
步入	-8451
比喻	-8452
水箱	-8453
滴滴	-8454
球场	-8455
的总	-8456
的第	-8457
经贸	-8458
自助	-8459
臭氧	-8460
行李	-8461
要以	-8462
证件	-8463
起伏	-8464
轿车	-8465
铝板	-8466
音频	-8467
Pro	-8468
USB	-8469
yth	-8470
▁用户	-8471
也开始	-8472
云南省	-8473
创作者	-8474
在任何	-8475
在未来	-8476
左右的	-8477
引起了	-8478
情人节	-8479
我们对	-8480
是一些	-8481
的患者	-8482
研发的	-8483
精神和	-8484
聚氨酯	-8485
说明书	-8486
重金属	-8487
不可或缺	-8488
实体经济	-8489
疫情影响	-8490
直接影响	-8491
绿色发展	-8492
行政机关	-8493
韩式小吃	-8494
马克思主义	-8495
ph	-8496
三次	-8497
出示	-8498
化肥	-8499
场馆	-8500
失效	-8501
如意	-8502
巡视	-8503
市建	-8504
并为	-8505
念佛	-8506
手游	-8507
手表	-8508
抗议	-8509
提案	-8510
撤销	-8511
操纵	-8512
改制	-8513
放下	-8514
数额	-8515
整齐	-8516
更强	-8517
永续	-8518
测算	-8519
海拔	-8520
清扫	-8521
点评	-8522
真心	-8523
破解	-8524
神州	-8525
立项	-8526
良性	-8527
色调	-8528
花板	-8529
裂纹	-8530
订购	-8531
质的	-8532
起草	-8533
软化	-8534
还未	-8535
他表示	-8536
但如果	-8537
对企业	-8538
并提供	-8539
有多少	-8540
的名字	-8541
能不能	-8542
超过了	-8543
▁如果你	-8544
从业人员	-8545
党建工作	-8546
出席会议	-8547
竞争对手	-8548
艺术涂料	-8549
这些都是	-8550
,(	-8551
BS	-8552
Ex	-8553
UR	-8554
ux	-8555
”!	-8556
▁经	-8557
上报	-8558
上方	-8559
不孕	-8560
以其	-8561
优美	-8562
偶然	-8563
公立	-8564
写字	-8565
初级	-8566
到大	-8567
刷新	-8568
前所	-8569
加持	-8570
华东	-8571
印尼	-8572
压制	-8573
去看	-8574
县长	-8575
器和	-8576
围栏	-8577
奥斯	-8578
好转	-8579
导弹	-8580
届时	-8581
并无	-8582
得好	-8583
必备	-8584
新人	-8585
无毒	-8586
日讯	-8587
朝阳	-8588
此刻	-8589
死了	-8590
民进	-8591
烟台	-8592
爷爷	-8593
界限	-8594
痛点	-8595
相差	-8596
禁区	-8597
粘度	-8598
素材	-8599
编码	-8600
网民	-8601
评为	-8602
过分	-8603
还得	-8604
这块	-8605
鼓舞	-8606
ian	-8607
▁然后	-8608
一个小	-8609
冬奥会	-8610
准确性	-8611
可提供	-8612
对我们	-8613
得到的	-8614
成本的	-8615
服务商	-8616
的国际	-8617
的政治	-8618
的数量	-8619
的新闻	-8620
的热情	-8621
等技术	-8622
艺术品	-8623
通知书	-8624
垃圾分类	-8625
子宫破裂	-8626
学习贯彻	-8627
工作报告	-8628
市场份额	-8629
疫苗接种	-8630
进行分析	-8631
针对性的	-8632
人民检察院	-8633
党委副书记	-8634
进一步加强	-8635
新时代中国特色社会主义思想	-8636
▁说	-8637
一如	-8638
一股	-8639
一面	-8640
上学	-8641
主帅	-8642
也好	-8643
人权	-8644
克拉	-8645
华南	-8646
卖家	-8647
口袋	-8648
听了	-8649
和水	-8650
哺乳	-8651
在高	-8652
大法	-8653
大理	-8654
夹层	-8655
庞大	-8656
总计	-8657
无罪	-8658
木齐	-8659
村庄	-8660
没法	-8661
油水	-8662
流产	-8663
海上	-8664
清明	-8665
演奏	-8666
潜水	-8667
瓶颈	-8668
电能	-8669
系友	-8670
缓冲	-8671
花纹	-8672
诚实	-8673
转会	-8674
适量	-8675
金刚	-8676
DNA	-8677
IPv	-8678
ite	-8679
▁我国	-8680
一下子	-8681
不可以	-8682
为群众	-8683
也可能	-8684
会议室	-8685
公司与	-8686
可以从	-8687
庞大的	-8688
投资的	-8689
方式的	-8690
是一项	-8691
是国内	-8692
比较大	-8693
的一点	-8694
的整体	-8695
背后的	-8696
附近的	-8697
驾驶员	-8698
lash	-8699
▁Neo	-8700
一个新的	-8701
乌鲁木齐	-8702
了自己的	-8703
众所周知	-8704
就可以了	-8705
很多人都	-8706
时事政治	-8707
生态系统	-8708
科技大学	-8709
至关重要	-8710
日常生活中	-8711
进一步提升	-8712
进一步提高	-8713
▁到	-8714
▁南	-8715
▁国	-8716
他还	-8717
偿还	-8718
充实	-8719
反击	-8720
只见	-8721
品尝	-8722
契合	-8723
妇科	-8724
尔德	-8725
就此	-8726
尽力	-8727
巴巴	-8728
常温	-8729
引用	-8730
当成	-8731
惩戒	-8732
手里	-8733
打好	-8734
执业	-8735
扫码	-8736
抓紧	-8737
拉开	-8738
故宫	-8739
教训	-8740
更具	-8741
有毒	-8742
水晶	-8743
法庭	-8744
注销	-8745
渗漏	-8746
猜测	-8747
瑞士	-8748
生锈	-8749
用餐	-8750
督查	-8751
矿物	-8752
研磨	-8753
祝贺	-8754
祷告	-8755
纠正	-8756
置于	-8757
美洲	-8758
育人	-8759
言论	-8760
言语	-8761
货架	-8762
辖市	-8763
辨识	-8764
辩论	-8765
迄今	-8766
运送	-8767
适度	-8768
造纸	-8769
量和	-8770
防尘	-8771
阿根	-8772
随即	-8773
雄厚	-8774
顶部	-8775
骚扰	-8776
▁主要	-8777
▁大家	-8778
以后的	-8779
做到了	-8780
包装袋	-8781
对方的	-8782
并进行	-8783
的人物	-8784
的状况	-8785
老师们	-8786
都必须	-8787
作为一种	-8788
国家机关	-8789
高质量的	-8790
正确答案是	-8791
?,	-8792
FC	-8793
▁七	-8794
》)	-8795
下班	-8796
之美	-8797
云端	-8798
他也	-8799
价位	-8800
价钱	-8801
会展	-8802
公章	-8803
到场	-8804
制剂	-8805
北部	-8806
升温	-8807
华药	-8808
受访	-8809
商贸	-8810
城的	-8811
外援	-8812
奶茶	-8813
字符	-8814
学士	-8815
对本	-8816
尿酸	-8817
年在	-8818
很长	-8819
忘了	-8820
打了	-8821
打通	-8822
时限	-8823
明明	-8824
是中	-8825
求职	-8826
源自	-8827
的的	-8828
笑容	-8829
网的	-8830
聘用	-8831
胎记	-8832
腐败	-8833
般若	-8834
誉为	-8835
这点	-8836
退役	-8837
遍布	-8838
部落	-8839
age	-8840
不愿意	-8841
历史上	-8842
女孩子	-8843
实用性	-8844
服务于	-8845
生活会	-8846
的任务	-8847
的认识	-8848
管理员	-8849
给他们	-8850
要知道	-8851
让更多	-8852
企业管理	-8853
最大限度	-8854
知名品牌	-8855
网络安全	-8856
自由选择	-8857
行政处罚	-8858
队伍建设	-8859
▁个	-8860
一身	-8861
一阵	-8862
万个	-8863
万亩	-8864
不一	-8865
人流	-8866
你说	-8867
兴起	-8868
列为	-8869
可为	-8870
和我	-8871
圣诞	-8872
增量	-8873
多层	-8874
完工	-8875
富贵	-8876
局的	-8877
市的	-8878
年起	-8879
废旧	-8880
归属	-8881
忙碌	-8882
感悟	-8883
报文	-8884
排污	-8885
放射	-8886
整机	-8887
时要	-8888
暑假	-8889
曹操	-8890
替换	-8891
未必	-8892
极致	-8893
构筑	-8894
染色	-8895
死的	-8896
沉浸	-8897
法学	-8898
波纹	-8899
活塞	-8900
率高	-8901
画家	-8902
眼球	-8903
眼神	-8904
窗户	-8905
维权	-8906
肠道	-8907
自家	-8908
苏联	-8909
行走	-8910
课文	-8911
谷歌	-8912
贝尔	-8913
还应	-8914
远的	-8915
风的	-8916
eta	-8917
▁面对	-8918
与发展	-8919
了起来	-8920
可以是	-8921
和应用	-8922
因为在	-8923
并且在	-8924
控制在	-8925
游戏中	-8926
灌装机	-8927
物质的	-8928
空气中	-8929
聚合物	-8930
视网膜	-8931
部分的	-8932
阿根廷	-8933
中国经济	-8934
以及其他	-8935
其中包括	-8936
广泛用于	-8937
核心技术	-8938
生态文明	-8939
用人单位	-8940
ython	-8941
微信公众号	-8942
最重要的是	-8943
污水处理厂	-8944
iPhone	-8945
DI	-8946
cc	-8947
▁※	-8948
▁各	-8949
一共	-8950
不像	-8951
与您	-8952
五月	-8953
例外	-8954
倾听	-8955
六大	-8956
养分	-8957
切削	-8958
动漫	-8959
双重	-8960
可将	-8961
听见	-8962
回国	-8963
壁纸	-8964
大国	-8965
大队	-8966
子和	-8967
小麦	-8968
尼斯	-8969
带上	-8970
抗震	-8971
据悉	-8972
救护	-8973
新颖	-8974
有用	-8975
期盼	-8976
档次	-8977
桥架	-8978
检定	-8979
水源	-8980
汉语	-8981
流感	-8982
液化	-8983
盛会	-8984
矮人	-8985
码头	-8986
简历	-8987
红酒	-8988
美人	-8989
联手	-8990
肝脏	-8991
能为	-8992
财运	-8993
起着	-8994
跟进	-8995
运维	-8996
香料	-8997
ill	-8998
ork	-8999
▁项目	-9000
万亿元	-9001
不一定	-9002
不喜欢	-9003
以满足	-9004
保持在	-9005
出一个	-9006
创造了	-9007
和支持	-9008
在接受	-9009
已经被	-9010
影响的	-9011
很简单	-9012
投资人	-9013
摄像机	-9014
机械化	-9015
比赛中	-9016
比较多	-9017
的心态	-9018
的生命	-9019
聚乙烯	-9020
自来水	-9021
起到了	-9022
采用的	-9023
重量轻	-9024
集装箱	-9025
也不知道	-9026
了一系列	-9027
制造企业	-9028
千万不要	-9029
或者其他	-9030
截至目前	-9031
污染防治	-9032
疫情期间	-9033
违法行为	-9034
金融服务	-9035
国家和地区	-9036
监察委员会	-9037
au	-9038
nm	-9039
▁•	-9040
▁八	-9041
▁山	-9042
下沉	-9043
下调	-9044
不怕	-9045
不明	-9046
不绝	-9047
事的	-9048
人际	-9049
佛陀	-9050
做大	-9051
减免	-9052
加固	-9053
卫视	-9054
却在	-9055
去世	-9056
图文	-9057
在职	-9058
增效	-9059
将有	-9060
开门	-9061
恶性	-9062
悬挂	-9063
改良	-9064
无所	-9065
未有	-9066
来回	-9067
核准	-9068
没收	-9069
洪水	-9070
甜蜜	-9071
直线	-9072
终点	-9073
而后	-9074
耕地	-9075
脱颖	-9076
落到	-9077
运气	-9078
避开	-9079
震撼	-9080
青山	-9081
饮品	-9082
鼠标	-9083
CPU	-9084
了解了	-9085
全覆盖	-9086
只要你	-9087
可以使	-9088
和数据	-9089
如何在	-9090
市面上	-9091
指挥部	-9092
旗下的	-9093
是一件	-9094
熟悉的	-9095
知识的	-9096
而对于	-9097
葛志强	-9098
都非常	-9099
▁如果您	-9100
仅供参考	-9101
代理机构	-9102
养老保险	-9103
医疗服务	-9104
实践活动	-9105
实际行动	-9106
亿品佰艺韩式小吃	-9107
一向	-9108
两名	-9109
产地	-9110
伊朗	-9111
会同	-9112
位居	-9113
像素	-9114
出让	-9115
剧烈	-9116
去的	-9117
变速	-9118
合资	-9119
喜好	-9120
四十	-9121
填报	-9122
奥林	-9123
实惠	-9124
富裕	-9125
性地	-9126
战士	-9127
执政	-9128
推介	-9129
改编	-9130
无力	-9131
日照	-9132
时空	-9133
歧视	-9134
泄露	-9135
涨价	-9136
真理	-9137
眼里	-9138
着眼	-9139
空白	-9140
肉类	-9141
自愿	-9142
萃取	-9143
酸碱	-9144
量身	-9145
银屑	-9146
防锈	-9147
高雄	-9148
黄瓜	-9149
min	-9150
▁——	-9151
价格的	-9152
体积小	-9153
创造力	-9154
告诉我	-9155
因为他	-9156
坐落于	-9157
大学的	-9158
大幅度	-9159
新西兰	-9160
的研发	-9161
目标是	-9162
知识和	-9163
线切割	-9164
都不是	-9165
严格落实	-9166
传统文化	-9167
发生变化	-9168
可以看出	-9169
年初预算	-9170
应用场景	-9171
建筑材料	-9172
征求意见	-9173
少林寺武校	-9174
习近平新时代中国特色社会主义思想	-9175
)(	-9176
+”	-9177
SI	-9178
▁按	-9179
▁林	-9180
一手	-9181
三位	-9182
下车	-9183
不算	-9184
不觉	-9185
不负	-9186
专人	-9187
丙烯	-9188
会是	-9189
便携	-9190
偶像	-9191
冷水	-9192
切分	-9193
剥离	-9194
力求	-9195
各样	-9196
喷雾	-9197
大了	-9198
奋进	-9199
好多	-9200
客运	-9201
家园	-9202
对策	-9203
工地	-9204
我还	-9205
批量	-9206
新城	-9207
无穷	-9208
景象	-9209
更佳	-9210
来做	-9211
果实	-9212
样板	-9213
氧气	-9214
法制	-9215
流转	-9216
犯规	-9217
率的	-9218
电场	-9219
盐酸	-9220
监局	-9221
看过	-9222
矿石	-9223
破损	-9224
程式	-9225
管材	-9226
精湛	-9227
红花	-9228
航线	-9229
花钱	-9230
茶饮	-9231
蜂蜜	-9232
越野	-9233
边境	-9234
都说	-9235
酒的	-9236
长春	-9237
防线	-9238
ron	-9239
ube	-9240
▁用于	-9241
中小学	-9242
举行的	-9243
他人的	-9244
决定的	-9245
副主席	-9246
加入了	-9247
同时在	-9248
女人的	-9249
总投资	-9250
显示器	-9251
机构和	-9252
特有的	-9253
的一款	-9254
的文化	-9255
的症状	-9256
而且还	-9257
规划和	-9258
该怎么	-9259
高标准	-9260
icro	-9261
▁第一百	-9262
大力发展	-9263
志愿服务	-9264
我们应该	-9265
设备有限公司	-9266
BO	-9267
az	-9268
te	-9269
一部	-9270
万达	-9271
三七	-9272
中型	-9273
丰田	-9274
交谈	-9275
仍是	-9276
保镖	-9277
出手	-9278
分管	-9279
切入	-9280
功用	-9281
区委	-9282
反正	-9283
吊装	-9284
商会	-9285
喜悦	-9286
回升	-9287
地磅	-9288
多吃	-9289
夯实	-9290
封装	-9291
尼奥	-9292
希腊	-9293
带宽	-9294
并向	-9295
庭院	-9296
归纳	-9297
所说	-9298
手持	-9299
投身	-9300
抗菌	-9301
挂钩	-9302
播种	-9303
擦拭	-9304
数百	-9305
无形	-9306
显微	-9307
机型	-9308
植入	-9309
榜样	-9310
母婴	-9311
氨基	-9312
渔业	-9313
碳化	-9314
经由	-9315
而上	-9316
联想	-9317
英寸	-9318
论述	-9319
负债	-9320
货车	-9321
趣味	-9322
过硬	-9323
过长	-9324
这张	-9325
重心	-9326
长寿	-9327
隐形	-9328
风量	-9329
高位	-9330
▁Cl	-9331
▁会上	-9332
▁提供	-9333
▁还有	-9334
一个是	-9335
与服务	-9336
两个月	-9337
以保证	-9338
内心的	-9339
准备好	-9340
国内的	-9341
在国际	-9342
指定的	-9343
提到的	-9344
文件的	-9345
是一位	-9346
有兴趣	-9347
极高的	-9348
民进党	-9349
没办法	-9350
派出所	-9351
的说法	-9352
的运动	-9353
等产品	-9354
等内容	-9355
类似于	-9356
类似的	-9357
过去了	-9358
高强度	-9359
高血压	-9360
不得超过	-9361
合作关系	-9362
国有企业	-9363
安全隐患	-9364
就是为了	-9365
成为一个	-9366
政府部门	-9367
这个世界	-9368
这种方法	-9369
重点项目	-9370
龙头企业	-9371
很大程度上	-9372
野生动物园	-9373
的重要组成部分	-9374
CN	-9375
一九	-9376
不堪	-9377
专案	-9378
亲属	-9379
人之	-9380
似的	-9381
侵害	-9382
便会	-9383
全台	-9384
全局	-9385
刀具	-9386
即为	-9387
各行	-9388
四季	-9389
在你	-9390
大门	-9391
天后	-9392
失误	-9393
射击	-9394
就把	-9395
差的	-9396
布鲁	-9397
帐号	-9398
并有	-9399
张力	-9400
总数	-9401
患儿	-9402
折叠	-9403
拯救	-9404
收支	-9405
敬拜	-9406
断裂	-9407
早泄	-9408
是与	-9409
是谁	-9410
暴雨	-9411
查找	-9412
横向	-9413
沿海	-9414
洗手	-9415
滥用	-9416
烟气	-9417
监视	-9418
绑架	-9419
给她	-9420
缝隙	-9421
缺失	-9422
而生	-9423
脚踏	-9424
解说	-9425
诱发	-9426
金牌	-9427
钥匙	-9428
附着	-9429
骄傲	-9430
ain	-9431
ant	-9432
the	-9433
不应该	-9434
为导向	-9435
了不少	-9436
使用了	-9437
可爱的	-9438
多样性	-9439
婴幼儿	-9440
差异化	-9441
打造的	-9442
改革的	-9443
效果好	-9444
无症状	-9445
流行的	-9446
的成绩	-9447
的行业	-9448
的资料	-9449
立方米	-9450
等服务	-9451
领导人	-9452
不断完善	-9453
专业生产	-9454
工程机械	-9455
试验大厅	-9456
;“	-9457
▁每	-9458
一辆	-9459
下达	-9460
不做	-9461
不等	-9462
之人	-9463
保有	-9464
光照	-9465
农机	-9466
出入	-9467
分行	-9468
功耗	-9469
势头	-9470
华北	-9471
单个	-9472
喷漆	-9473
困惑	-9474
在水	-9475
增收	-9476
多特	-9477
大街	-9478
太过	-9479
女友	-9480
学业	-9481
尺度	-9482
开户	-9483
异性	-9484
异议	-9485
强国	-9486
或在	-9487
抗压	-9488
新老	-9489
早前	-9490
是他	-9491
是把	-9492
是说	-9493
根基	-9494
游览	-9495
演示	-9496
煤灰	-9497
特尔	-9498
生化	-9499
疑惑	-9500
硬盘	-9501
磁力	-9502
管家	-9503
自豪	-9504
藏品	-9505
访谈	-9506
详见	-9507
质地	-9508
质子	-9509
跟我	-9510
轻微	-9511
限量	-9512
首位	-9513
麦克	-9514
CEO	-9515
The	-9516
ase	-9517
▁而且	-9518
一个个	-9519
不少于	-9520
也无法	-9521
代表团	-9522
信息和	-9523
免疫力	-9524
全日制	-9525
在台湾	-9526
它具有	-9527
家企业	-9528
开幕式	-9529
成都市	-9530
电保护	-9531
的任何	-9532
的特性	-9533
科创板	-9534
血管瘤	-9535
遇到的	-9536
都已经	-9537
高精度	-9538
主体责任	-9539
始终坚持	-9540
市场竞争	-9541
生命周期	-9542
人民代表大会常务委员会	-9543
▁外	-9544
▁好	-9545
不已	-9546
中级	-9547
为民	-9548
之家	-9549
乳液	-9550
伴随	-9551
使之	-9552
全员	-9553
利息	-9554
原油	-9555
姐妹	-9556
宝贵	-9557
宝马	-9558
对着	-9559
巡察	-9560
床垫	-9561
座位	-9562
往前	-9563
恒大	-9564
悬浮	-9565
想过	-9566
抓手	-9567
挣扎	-9568
斯科	-9569
旋律	-9570
既往	-9571
智库	-9572
最有	-9573
服从	-9574
木质	-9575
洗净	-9576
海信	-9577
涌现	-9578
潍坊	-9579
火焰	-9580
畜牧	-9581
疏通	-9582
短缺	-9583
精益	-9584
美化	-9585
耳朵	-9586
脱水	-9587
规程	-9588
较强	-9589
问我	-9590
问答	-9591
VID	-9592
▁Ex	-9593
▁技术	-9594
▁这一	-9595
▁这里	-9596
不利于	-9597
为公司	-9598
共同体	-9599
医院的	-9600
和完善	-9601
奠定了	-9602
就能够	-9603
建筑的	-9604
时间长	-9605
是根据	-9606
来实现	-9607
的商品	-9608
而这些	-9609
输送机	-9610
那么多	-9611
铝型材	-9612
风格的	-9613
高风险	-9614
复工复产	-9615
工程质量	-9616
生产能力	-9617
违法所得	-9618
存在的问题	-9619
新型冠状病毒	-9620
EN	-9621
ld	-9622
万物	-9623
三人	-9624
上调	-9625
两条	-9626
举动	-9627
了他	-9628
他会	-9629
会场	-9630
农田	-9631
利好	-9632
升值	-9633
和他	-9634
喂养	-9635
四种	-9636
国小	-9637
在下	-9638
壳牌	-9639
备用	-9640
太空	-9641
常州	-9642
惊艳	-9643
抛弃	-9644
拜登	-9645
提早	-9646
校企	-9647
比利	-9648
水流	-9649
滋味	-9650
灰色	-9651
版的	-9652
环绕	-9653
生鲜	-9654
电热	-9655
百科	-9656
短路	-9657
硅胶	-9658
精华	-9659
老婆	-9660
贴心	-9661
贴近	-9662
辨认	-9663
长效	-9664
领土	-9665
颠覆	-9666
骑士	-9667
ive	-9668
▁三是	-9669
▁采用	-9670
作用下	-9671
元左右	-9672
分析仪	-9673
区域的	-9674
合格的	-9675
和国际	-9676
和维护	-9677
在学校	-9678
复印机	-9679
小时候	-9680
局局长	-9681
当时的	-9682
我国的	-9683
或者说	-9684
抗生素	-9685
新华社	-9686
普洱茶	-9687
有效性	-9688
有的人	-9689
直辖市	-9690
突出的	-9691
粉煤灰	-9692
蓄电池	-9693
高新区	-9694
交易平台	-9695
医疗保险	-9696
安全可靠	-9697
法定代表	-9698
需要进行	-9699
值得注意的是	-9700
CR	-9701
▁总	-9702
▁时	-9703
万里	-9704
上是	-9705
不说	-9706
东盟	-9707
之力	-9708
之年	-9709
决算	-9710
分裂	-9711
动机	-9712
勇士	-9713
厂区	-9714
友善	-9715
友情	-9716
口的	-9717
在该	-9718
大使	-9719
奋力	-9720
字号	-9721
就很	-9722
就读	-9723
州区	-9724
建模	-9725
微波	-9726
打入	-9727
拉伸	-9728
推展	-9729
提名	-9730
提炼	-9731
时报	-9732
板上	-9733
校准	-9734
检视	-9735
欺骗	-9736
泰安	-9737
海军	-9738
灿烂	-9739
特质	-9740
猪肉	-9741
疲惫	-9742
看完	-9743
秋季	-9744
而定	-9745
走的	-9746
追逐	-9747
闭环	-9748
间距	-9749
院所	-9750
顺应	-9751
鼻子	-9752
ens	-9753
▁比如	-9754
万元的	-9755
中国队	-9756
了自己	-9757
事业部	-9758
伙伴们	-9759
剩下的	-9760
副局长	-9761
医生的	-9762
占有率	-9763
国资委	-9764
在过去	-9765
奥林匹	-9766
安全感	-9767
是多少	-9768
朋友圈	-9769
深加工	-9770
的可能	-9771
的味道	-9772
的权利	-9773
让用户	-9774
迎来了	-9775
这本书	-9776
避免了	-9777
领导下	-9778
▁我们的	-9779
因为我们	-9780
情况进行	-9781
技术研发	-9782
相信大家	-9783
脱颖而出	-9784
%)	-9785
iz	-9786
▁e	-9787
▁正	-9788
▁问	-9789
一根	-9790
七夕	-9791
不幸	-9792
专职	-9793
中原	-9794
之余	-9795
之道	-9796
代言	-9797
伪造	-9798
几何	-9799
前方	-9800
前瞻	-9801
压实	-9802
变迁	-9803
叙述	-9804
台东	-9805
名片	-9806
吸取	-9807
固醇	-9808
大哥	-9809
天生	-9810
头条	-9811
宜昌	-9812
开具	-9813
开的	-9814
当选	-9815
忍受	-9816
打赢	-9817
技师	-9818
抱怨	-9819
教案	-9820
新风	-9821
既要	-9822
日记	-9823
普法	-9824
机能	-9825
江门	-9826
留置	-9827
的后	-9828
的非	-9829
眼科	-9830
祝愿	-9831
粘合	-9832
缴存	-9833
获批	-9834
调速	-9835
贬值	-9836
轨迹	-9837
进驻	-9838
通告	-9839
里斯	-9840
间断	-9841
风吹	-9842
餐桌	-9843
act	-9844
ial	-9845
ner	-9846
▁地址	-9847
不再是	-9848
不舒服	-9849
也不要	-9850
了一场	-9851
些什么	-9852
人体的	-9853
仍然是	-9854
以及对	-9855
公司和	-9856
可以对	-9857
在公司	-9858
寿命长	-9859
忍不住	-9860
手术室	-9861
新征程	-9862
漂亮的	-9863
特点是	-9864
环境和	-9865
的人群	-9866
的对象	-9867
的理解	-9868
著作权	-9869
西门子	-9870
跟大家	-9871
防静电	-9872
面临着	-9873
可以达到	-9874
对自己的	-9875
小我私家	-9876
教育教学	-9877
生产制造	-9878
电商平台	-9879
这是因为	-9880
这篇文章	-9881
治疗白癜风	-9882
相关负责人	-9883
▁Facebook	-9884
Cr	-9885
DR	-9886
EX	-9887
HO	-9888
Re	-9889
▁x	-9890
▁单	-9891
▁因	-9892
一律	-9893
一篇	-9894
企图	-9895
传出	-9896
全天	-9897
关税	-9898
动脉	-9899
卖出	-9900
在做	-9901
场面	-9902
处长	-9903
如实	-9904
对阵	-9905
小美	-9906
工信	-9907
得的	-9908
急救	-9909
急需	-9910
患上	-9911
惩罚	-9912
抓取	-9913
抵押	-9914
拆卸	-9915
拆迁	-9916
放宽	-9917
整洁	-9918
新手	-9919
无锡	-9920
早晨	-9921
时长	-9922
旺盛	-9923
有意	-9924
栏杆	-9925
深处	-9926
滤波	-9927
王子	-9928
甲方	-9929
碎片	-9930
碳酸	-9931
窗帘	-9932
等候	-9933
管网	-9934
线圈	-9935
细心	-9936
肥胖	-9937
自贸	-9938
药剂	-9939
试着	-9940
车内	-9941
还需	-9942
这将	-9943
违约	-9944
酱香	-9945
铸件	-9946
阴阳	-9947
音响	-9948
颁布	-9949
黄花	-9950
▁他们	-9951
▁例如	-9952
三年级	-9953
下面就	-9954
中使用	-9955
体系和	-9956
到这里	-9957
地进行	-9958
并不会	-9959
建造师	-9960
性生活	-9961
我已经	-9962
我还是	-9963
才知道	-9964
支持和	-9965
来到了	-9966
湖北省	-9967
电动车	-9968
的一大	-9969
的战略	-9970
的未来	-9971
的条件	-9972
的营养	-9973
知名的	-9974
离开了	-9975
等活动	-9976
精度高	-9977
一个人的	-9978
也是非常	-9979
从而达到	-9980
全面推进	-9981
劳动争议	-9982
微量元素	-9983
深度融合	-9984
的安全性	-9985
监控系统	-9986
课堂教学	-9987
高等学校	-9988
LE	-9989
··	-9990
。?	-9991
一眼	-9992
一键	-9993
三板	-9994
下水	-9995
丝网	-9996
亲人	-9997
仁和	-9998
公职	-9999
剧本	-10000
动的	-10001
发了	-10002
取暖	-10003
变位	-10004
口径	-10005
名言	-10006
向往	-10007
周一	-10008
商用	-10009
固然	-10010
国旗	-10011
场次	-10012
塑性	-10013
室温	-10014
对该	-10015
小小	-10016
开学	-10017
开裂	-10018
很是	-10019
心得	-10020
抖音	-10021
报到	-10022
推迟	-10023
日式	-10024
本社	-10025
杂物	-10026
槽钢	-10027
比分	-10028
河道	-10029
物价	-10030
电镀	-10031
畅销	-10032
病房	-10033
白菜	-10034
石膏	-10035
神圣	-10036
稳固	-10037
章程	-10038
第十	-10039
若有	-10040
见效	-10041
警惕	-10042
议员	-10043
走过	-10044
运算	-10045
这几	-10046
邪恶	-10047
钓鱼	-10048
门票	-10049
阶级	-10050
音箱	-10051
骨骼	-10052
▁这次	-10053
不仅要	-10054
中含有	-10055
交易的	-10056
任何人	-10057
准考证	-10058
加大对	-10059
劳动者	-10060
即便是	-10061
同性恋	-10062
哈尔滨	-10063
大会上	-10064
应有的	-10065
性能和	-10066
接受了	-10067
有两种	-10068
有趣的	-10069
正处于	-10070
疫情的	-10071
的同学	-10072
的系统	-10073
的表面	-10074
线城市	-10075
经济体	-10076
结构和	-10077
群众的	-10078
而来的	-10079
销售的	-10080
阿拉伯	-10081
chat	-10082
严重影响	-10083
但不限于	-10084
化学反应	-10085
发展战略	-10086
咨询服务	-10087
垃圾处理	-10088
数据分析	-10089
数控机床	-10090
联系方式	-10091
觉得自己	-10092
适合自己的	-10093
:"	-10094
DK	-10095
▁元	-10096
▁现	-10097
、《	-10098
不尽	-10099
与众	-10100
与否	-10101
专精	-10102
专线	-10103
中外	-10104
中部	-10105
之情	-10106
之意	-10107
享用	-10108
亲戚	-10109
仅次	-10110
传授	-10111
使人	-10112
修理	-10113
做强	-10114
停留	-10115
入驻	-10116
兰州	-10117
共创	-10118
兼任	-10119
兼具	-10120
初次	-10121
利达	-10122
十余	-10123
南部	-10124
县委	-10125
启用	-10126
和非	-10127
学子	-10128
安保	-10129
定量	-10130
工委	-10131
平行	-10132
年中	-10133
年间	-10134
应付	-10135
廉洁	-10136
恰恰	-10137
慎重	-10138
接连	-10139
支配	-10140
收盘	-10141
收视	-10142
日均	-10143
景色	-10144
最强	-10145
来得	-10146
树林	-10147
欧冠	-10148
正向	-10149
比对	-10150
演艺	-10151
用好	-10152
的红	-10153
皮革	-10154
空心	-10155
篮板	-10156
经意	-10157
而这	-10158
肌瘤	-10159
菏泽	-10160
观测	-10161
轮廓	-10162
较长	-10163
选矿	-10164
酿造	-10165
不代表	-10166
不清楚	-10167
中发现	-10168
作品的	-10169
信用卡	-10170
副教授	-10171
区政府	-10172
和创新	-10173
在香港	-10174
多媒体	-10175
对公司	-10176
年轻的	-10177
我没有	-10178
是企业	-10179
标志着	-10180
水平和	-10181
生产中	-10182
生产商	-10183
的区域	-10184
的应当	-10185
第一款	-10186
规模化	-10187
计划的	-10188
请联系	-10189
陈代谢	-10190
预防和	-10191
不可避免	-10192
发布会上	-10193
因为他们	-10194
国民经济	-10195
很多时候	-10196
操作简单	-10197
空气质量	-10198
经常出现	-10199
职务犯罪	-10200
设计方案	-10201
财政部门	-10202
工程有限公司	-10203
社会保险基金	-10204
Ad	-10205
IF	-10206
ao	-10207
▁也	-10208
▁吴	-10209
▁多	-10210
▁想	-10211
一举	-10212
不分	-10213
不需	-10214
专为	-10215
中东	-10216
为之	-10217
举例	-10218
二期	-10219
党政	-10220
全校	-10221
受托	-10222
台上	-10223
吊顶	-10224
喝酒	-10225
四是	-10226
奇迹	-10227
字的	-10228
存量	-10229
密闭	-10230
将从	-10231
并能	-10232
开会	-10233
扶轮	-10234
是被	-10235
朝着	-10236
查封	-10237
植株	-10238
榜单	-10239
水务	-10240
洛阳	-10241
测绘	-10242
生人	-10243
生机	-10244
登上	-10245
相近	-10246
端午	-10247
莅临	-10248
诸如	-10249
走上	-10250
迹象	-10251
防雷	-10252
靠谱	-10253
领跑	-10254
风光	-10255
风貌	-10256
VPN	-10257
log	-10258
ond	-10259
与企业	-10260
与管理	-10261
主要以	-10262
他指出	-10263
传染病	-10264
分布式	-10265
可以把	-10266
各行各	-10267
团队的	-10268
大自然	-10269
嫌疑人	-10270
得益于	-10271
提供商	-10272
教师的	-10273
是一名	-10274
有很大	-10275
毕业于	-10276
氧化物	-10277
满意度	-10278
的动力	-10279
的平台	-10280
等诸多	-10281
结构性	-10282
舒适的	-10283
行业内	-10284
资产的	-10285
这不是	-10286
都是一	-10287
预处理	-10288
不断创新	-10289
不确定性	-10290
业内人士	-10291
也是一种	-10292
代办退税	-10293
全体员工	-10294
再次发生	-10295
农村土地	-10296
可以实现	-10297
基础研究	-10298
将进一步	-10299
很有可能	-10300
有不同的	-10301
油水分离	-10302
深入开展	-10303
生产设备	-10304
股指期货	-10305
亿品佰艺韩式小吃培训学校	-10306
一分	-10307
上限	-10308
专访	-10309
个股	-10310
主板	-10311
之子	-10312
也应	-10313
买到	-10314
交割	-10315
会谈	-10316
入场	-10317
公办	-10318
击中	-10319
单身	-10320
厨师	-10321
另行	-10322
台风	-10323
名额	-10324
后悔	-10325
命题	-10326
和不	-10327
块钱	-10328
姆斯	-10329
婚后	-10330
对面	-10331
少了	-10332
属地	-10333
帮你	-10334
底料	-10335
开朗	-10336
很强	-10337
所长	-10338
手感	-10339
扣除	-10340
把控	-10341
攻关	-10342
既能	-10343
易燃	-10344
更深	-10345
本轮	-10346
柏林	-10347
概括	-10348
浇水	-10349
浓郁	-10350
点燃	-10351
热度	-10352
煤气	-10353
生病	-10354
百货	-10355
的山	-10356
着急	-10357
笔试	-10358
第九	-10359
筛分	-10360
老大	-10361
肚子	-10362
腹部	-10363
见过	-10364
视线	-10365
评级	-10366
赛区	-10367
赛后	-10368
越发	-10369
躺在	-10370
还好	-10371
锻造	-10372
闲置	-10373
阵地	-10374
青团	-10375
预定	-10376
ust	-10377
▁万元	-10378
▁没有	-10379
▁问题	-10380
一对一	-10381
了一份	-10382
了一次	-10383
产品在	-10384
人民的	-10385
会选择	-10386
体系的	-10387
制度的	-10388
制成的	-10389
历史的	-10390
变频器	-10391
城镇化	-10392
展现了	-10393
巧克力	-10394
幸福的	-10395
快速的	-10396
情况的	-10397
的事项	-10398
的做法	-10399
的角色	-10400
都比较	-10401
饮用水	-10402
ight	-10403
▁第二百	-10404
临床试验	-10405
保温材料	-10406
信息系统	-10407
公安机关	-10408
发达国家	-10409
奥林匹克	-10410
影响力的	-10411
指挥中心	-10412
提供服务	-10413
检验检测	-10414
清华大学	-10415
现代化的	-10416
相关规定	-10417
重要作用	-10418
一般情况下	-10419
仲裁委员会	-10420
基础设施建设	-10421
%(	-10422
ll	-10423
oT	-10424
▁西	-10425
▁除	-10426
上周	-10427
临沂	-10428
为一	-10429
乳房	-10430
交货	-10431
体力	-10432
判定	-10433
前端	-10434
华盛	-10435
却不	-10436
却又	-10437
厂的	-10438
双碳	-10439
地在	-10440
地将	-10441
填补	-10442
实例	-10443
已是	-10444
愉悦	-10445
所致	-10446
无忧	-10447
无聊	-10448
果然	-10449
核对	-10450
民宿	-10451
气血	-10452
氯化	-10453
油价	-10454
治安	-10455
消灭	-10456
滑动	-10457
点和	-10458
牢牢	-10459
率低	-10460
环比	-10461
病菌	-10462
的说	-10463
皇马	-10464
磨机	-10465
粒子	-10466
精油	-10467
绘本	-10468
综艺	-10469
缺席	-10470
老家	-10471
脾胃	-10472
蓝牙	-10473
薪资	-10474
蜘蛛	-10475
衣物	-10476
试行	-10477
违背	-10478
选型	-10479
阳痿	-10480
非凡	-10481
领克	-10482
▁去年	-10483
▁研究	-10484
与社会	-10485
专门的	-10486
产品有	-10487
内分泌	-10488
十三五	-10489
县政府	-10490
反映了	-10491
句话说	-10492
和产品	-10493
学习和	-10494
导致了	-10495
就必须	-10496
应用中	-10497
控制和	-10498
故事的	-10499
是国家	-10500
本产品	-10501
火车站	-10502
的教育	-10503
被誉为	-10504
装配式	-10505
试验区	-10506
不断扩大	-10507
可能导致	-10508
商业银行	-10509
希望能够	-10510
改革创新	-10511
每个人都	-10512
理工大学	-10513
绝大部分	-10514
营业收入	-10515
,"	-10516
RA	-10517
oy	-10518
▁阿	-10519
一伟	-10520
上诉	-10521
临近	-10522
主的	-10523
人是	-10524
免责	-10525
又一	-10526
反向	-10527
变换	-10528
名人	-10529
堆积	-10530
大叶	-10531
好坏	-10532
如需	-10533
常年	-10534
并由	-10535
手上	-10536
扣押	-10537
投稿	-10538
摄入	-10539
机房	-10540
焦油	-10541
特效	-10542
王菲	-10543
童年	-10544
精灵	-10545
纺布	-10546
绘制	-10547
编剧	-10548
诊所	-10549
请勿	-10550
质保	-10551
跨国	-10552
路段	-10553
迈进	-10554
选址	-10555
防晒	-10556
面貌	-10557
预热	-10558
驾车	-10559
VOC	-10560
eep	-10561
ont	-10562
oud	-10563
▁工业	-10564
上进行	-10565
为主的	-10566
了一批	-10567
代表了	-10568
大城市	-10569
工作和	-10570
心理学	-10571
意识和	-10572
我们有	-10573
打印机	-10574
次会议	-10575
激烈的	-10576
的危险	-10577
的良好	-10578
相较于	-10579
知道了	-10580
第一批	-10581
规范的	-10582
银屑病	-10583
除尘器	-10584
able	-10585
不仅如此	-10586
不忘初心	-10587
世界各国	-10588
今年以来	-10589
变得更加	-10590
城市建设	-10591
民营企业	-10592
特种设备	-10593
研究成果	-10594
网络营销	-10595
食品加工	-10596
属于自己的	-10597
napchat	-10598
HL	-10599
SM	-10600
ug	-10601
yn	-10602
▁g	-10603
▁于	-10604
一间	-10605
上千	-10606
中止	-10607
互补	-10608
亲密	-10609
他和	-10610
以致	-10611
会把	-10612
但其	-10613
你看	-10614
光的	-10615
公认	-10616
共鸣	-10617
典范	-10618
再去	-10619
切勿	-10620
勤奋	-10621
发性	-10622
变异	-10623
在意	-10624
地利	-10625
声称	-10626
天才	-10627
央视	-10628
实务	-10629
尔克	-10630
就可	-10631
巧妙	-10632
干涉	-10633
当我	-10634
换热	-10635
搭乘	-10636
时节	-10637
昆虫	-10638
浓厚	-10639
清算	-10640
牵引	-10641
玩乐	-10642
的起	-10643
省内	-10644
矿产	-10645
穿上	-10646
竞买	-10647
粘贴	-10648
给水	-10649
维奇	-10650
美女	-10651
胶囊	-10652
能使	-10653
苏宁	-10654
茱萸	-10655
表皮	-10656
裁定	-10657
超标	-10658
跑步	-10659
这在	-10660
选拔	-10661
量子	-10662
钢制	-10663
阴茎	-10664
高手	-10665
高新	-10666
ock	-10667
own	-10668
▁其他	-10669
▁深圳	-10670
▁第七	-10671
不只是	-10672
不合理	-10673
与客户	-10674
为了让	-10675
也成为	-10676
他认为	-10677
以防止	-10678
众多的	-10679
全球化	-10680
出租车	-10681
加热器	-10682
卫生间	-10683
可能的	-10684
和大家	-10685
回到了	-10686
在这一	-10687
地下水	-10688
增强了	-10689
工作时	-10690
工作站	-10691
建立起	-10692
必要时	-10693
方法和	-10694
有人说	-10695
游泳池	-10696
的事件	-10697
看不到	-10698
系列的	-10699
而导致	-10700
能达到	-10701
英格兰	-10702
走出去	-10703
身上的	-10704
防护罩	-10705
====	-10706
____	-10707
▁App	-10708
交通事故	-10709
价格上涨	-10710
任何一个	-10711
制度改革	-10712
去年同期	-10713
工作任务	-10714
市场上的	-10715
年上半年	-10716
技术服务	-10717
生活中的	-10718
用自己的	-10719
空气中的	-10720
职业生涯	-10721
职业资格	-10722
范围内的	-10723
行政执法	-10724
规章制度	-10725
项目管理	-10726
食品药品	-10727
具有一定的	-10728
包括但不限于	-10729
NG	-10730
NS	-10731
ew	-10732
▁&	-10733
▁v	-10734
一处	-10735
万台	-10736
上也	-10737
中期	-10738
主权	-10739
之初	-10740
二的	-10741
亲身	-10742
人社	-10743
从前	-10744
以赴	-10745
体外	-10746
偏好	-10747
做起	-10748
入库	-10749
农历	-10750
减缓	-10751
华侨	-10752
华夏	-10753
南宁	-10754
又会	-10755
右侧	-10756
告别	-10757
国人	-10758
墙板	-10759
多重	-10760
奶粉	-10761
好看	-10762
客房	-10763
宽敞	-10764
嵌入	-10765
年第	-10766
张波	-10767
情境	-10768
感慨	-10769
戴尔	-10770
所含	-10771
执着	-10772
抄表	-10773
挤出	-10774
挫折	-10775
敏锐	-10776
斯基	-10777
有钱	-10778
杀死	-10779
根系	-10780
江南	-10781
海绵	-10782
清醒	-10783
热泵	-10784
硫化	-10785
碱性	-10786
管路	-10787
精美	-10788
终究	-10789
膳食	-10790
艾滋	-10791
蚂蚁	-10792
规避	-10793
解锁	-10794
词语	-10795
退市	-10796
降雨	-10797
震动	-10798
▁我的	-10799
▁拼音	-10800
▁文章	-10801
为一个	-10802
保护和	-10803
停留在	-10804
其主要	-10805
其他人	-10806
分之一	-10807
创办人	-10808
华盛顿	-10809
太平洋	-10810
妈妈的	-10811
对大家	-10812
将持续	-10813
据了解	-10814
搅拌机	-10815
方式和	-10816
标准和	-10817
正能量	-10818
活性炭	-10819
的模式	-10820
组委会	-10821
给予了	-10822
肯定是	-10823
解决的	-10824
达不到	-10825
还是在	-10826
道路上	-10827
非常有	-10828
人员进行	-10829
所需要的	-10830
接下来的	-10831
法律服务	-10832
生产效率	-10833
节能环保	-10834
越来越高	-10835
一起来看看	-10836
为用户提供	-10837
BB	-10838
EE	-10839
▁安	-10840
▁被	-10841
▁近	-10842
一千	-10843
一并	-10844
下次	-10845
不准	-10846
不胜	-10847
不难	-10848
严密	-10849
中性	-10850
之命	-10851
也对	-10852
代孕	-10853
便可	-10854
做个	-10855
儿女	-10856
光灯	-10857
光荣	-10858
入职	-10859
剧中	-10860
博弈	-10861
厨余	-10862
反之	-10863
发包	-10864
受邀	-10865
叶子	-10866
回路	-10867
回避	-10868
太高	-10869
头上	-10870
宣称	-10871
寂寞	-10872
小鹏	-10873
层级	-10874
峰值	-10875
嵩山	-10876
干事	-10877
式和	-10878
强力	-10879
强行	-10880
投产	-10881
拖链	-10882
提倡	-10883
摸索	-10884
救灾	-10885
文案	-10886
机车	-10887
欢喜	-10888
民警	-10889
水稻	-10890
湿地	-10891
火的	-10892
痛风	-10893
睾丸	-10894
票据	-10895
禁忌	-10896
租房	-10897
立的	-10898
等着	-10899
简易	-10900
粘结	-10901
给您	-10902
罕见	-10903
翻转	-10904
能有	-10905
褐色	-10906
解脱	-10907
言之	-10908
评委	-10909
财报	-10910
购房	-10911
足协	-10912
车牌	-10913
转为	-10914
道具	-10915
重症	-10916
革新	-10917
马达	-10918
黑白	-10919
ich	-10920
org	-10921
▁活动	-10922
▁随后	-10923
一会儿	-10924
不承担	-10925
之类的	-10926
互感器	-10927
作用的	-10928
保持着	-10929
儿童的	-10930
全社会	-10931
共青团	-10932
商品的	-10933
委托人	-10934
展开了	-10935
山西省	-10936
应注意	-10937
有问题	-10938
毛主席	-10939
热镀锌	-10940
的传统	-10941
的全部	-10942
的客户	-10943
的建议	-10944
的最高	-10945
的网站	-10946
的考生	-10947
的身份	-10948
矿物质	-10949
等进行	-10950
经典的	-10951
结果的	-10952
能满足	-10953
自己是	-10954
资料的	-10955
资金的	-10956
这对于	-10957
都不能	-10958
都能够	-10959
风机的	-10960
创新创业	-10961
历史文化	-10962
告诉我们	-10963
完全可以	-10964
师范大学	-10965
行政法规	-10966
说过这样	-10967
阿里巴巴	-10968
降低成本	-10969
个工作日内	-10970
工业互联网	-10971
▁Google	-10972
云南野生动物园	-10973
七年	-10974
三百	-10975
下属	-10976
下旬	-10977
不让	-10978
之战	-10979
乳酸	-10980
估算	-10981
位列	-10982
住所	-10983
你对	-10984
停产	-10985
偷偷	-10986
六年	-10987
前途	-10988
剪切	-10989
南瓜	-10990
变质	-10991
可调	-10992
同心	-10993
向下	-10994
向外	-10995
呕吐	-10996
士兵	-10997
大有	-10998
大纲	-10999
头顶	-11000
宝贝	-11001
尽情	-11002
层楼	-11003
帷幕	-11004
年年	-11005
年期	-11006
徐州	-11007
得起	-11008
惊讶	-11009
或多	-11010
抢救	-11011
掩盖	-11012
摄氏	-11013
改版	-11014
整套	-11015
时装	-11016
明亮	-11017
星星	-11018
更长	-11019
机理	-11020
枸杞	-11021
比丘	-11022
法和	-11023
洗澡	-11024
浪潮	-11025
海汉	-11026
涂抹	-11027
深思	-11028
炒作	-11029
珊莎	-11030
的超	-11031
盖章	-11032
石料	-11033
磋商	-11034
神话	-11035
票房	-11036
空军	-11037
红外	-11038
纯水	-11039
考场	-11040
膜的	-11041
药业	-11042
血清	-11043
被迫	-11044
说服	-11045
赞同	-11046
走廊	-11047
轴线	-11048
那边	-11049
邮寄	-11050
防伪	-11051
防汛	-11052
降至	-11053
零食	-11054
食欲	-11055
首家	-11056
骨料	-11057
高低	-11058
htt	-11059
ile	-11060
▁于是	-11061
▁香港	-11062
一等奖	-11063
下面的	-11064
个月内	-11065
仅次于	-11066
再利用	-11067
出来了	-11068
包含了	-11069
却没有	-11070
发挥了	-11071
变化的	-11072
和安全	-11073
在家里	-11074
在那里	-11075
基督徒	-11076
如果说	-11077
宝贵的	-11078
开始的	-11079
得不到	-11080
所以我	-11081
的人民	-11082
的决定	-11083
的开发	-11084
的综合	-11085
相适应	-11086
等症状	-11087
系统等	-11088
经验和	-11089
美术馆	-11090
苏州市	-11091
范围的	-11092
讲述了	-11093
较低的	-11094
辽宁省	-11095
mail	-11096
人大代表	-11097
其中一个	-11098
是什么呢	-11099
电子产品	-11100
目前为止	-11101
调查人员	-11102
移动互联网	-11103
HA	-11104
VI	-11105
ah	-11106
▁;	-11107
一经	-11108
七个	-11109
不着	-11110
专栏	-11111
两项	-11112
产出	-11113
保值	-11114
修炼	-11115
倒入	-11116
先前	-11117
剧场	-11118
功德	-11119
勃起	-11120
吸入	-11121
命的	-11122
多月	-11123
存活	-11124
学到	-11125
实物	-11126
居室	-11127
弥陀	-11128
强赛	-11129
彼得	-11130
才华	-11131
报关	-11132
拟订	-11133
推理	-11134
收回	-11135
改装	-11136
旅馆	-11137
无一	-11138
是的	-11139
月亮	-11140
木箱	-11141
李娜	-11142
毛笔	-11143
民用	-11144
氮化	-11145
清凉	-11146
清爽	-11147
焰火	-11148
疗程	-11149
答题	-11150
筛查	-11151
红旗	-11152
耐候	-11153
胆子	-11154
蒙德	-11155
要从	-11156
触及	-11157
谈论	-11158
财税	-11159
费率	-11160
转发	-11161
轻质	-11162
辛勤	-11163
远方	-11164
迭代	-11165
重启	-11166
锦标	-11167
震惊	-11168
领会	-11169
风情	-11170
龙门	-11171
ide	-11172
▁工作	-11173
一体机	-11174
一种是	-11175
不仅能	-11176
不动产	-11177
举行了	-11178
也不用	-11179
人为本	-11180
优异的	-11181
但对于	-11182
净资产	-11183
则需要	-11184
到一个	-11185
和分析	-11186
并根据	-11187
很好地	-11188
想知道	-11189
报告中	-11190
旗舰店	-11191
明确的	-11192
是利用	-11193
本平台	-11194
水资源	-11195
江西省	-11196
状态下	-11197
独一无	-11198
班主任	-11199
的努力	-11200
的计划	-11201
短期内	-11202
等形式	-11203
组织和	-11204
经常会	-11205
肯定会	-11206
自定义	-11207
节目中	-11208
要坚持	-11209
设计与	-11210
运动会	-11211
需要对	-11212
领导和	-11213
高度的	-11214
ence	-11215
也是一个	-11216
出现问题	-11217
性能稳定	-11218
服务质量	-11219
未来发展	-11220
电话号码	-11221
继电保护	-11222
这种方式	-11223
ookie	-11224
行业的发展	-11225
Python	-11226
oc	-11227
▁白	-11228
一夜	-11229
不信	-11230
两会	-11231
中场	-11232
久了	-11233
之大	-11234
之所	-11235
五行	-11236
会将	-11237
侦探	-11238
侵蚀	-11239
保洁	-11240
倒是	-11241
值守	-11242
党风	-11243
全域	-11244
兵团	-11245
减弱	-11246
单板	-11247
及早	-11248
口号	-11249
同情	-11250
向您	-11251
国脚	-11252
在后	-11253
墨西	-11254
学问	-11255
安定	-11256
巨人	-11257
年是	-11258
悄悄	-11259
愈来	-11260
感叹	-11261
所用	-11262
拉动	-11263
按下	-11264
时有	-11265
月至	-11266
有几	-11267
本领	-11268
根源	-11269
梦幻	-11270
模组	-11271
此后	-11272
毒素	-11273
油烟	-11274
法典	-11275
洞察	-11276
深感	-11277
湿润	-11278
滤袋	-11279
热源	-11280
爱人	-11281
爵士	-11282
特意	-11283
狮子	-11284
王的	-11285
现任	-11286
班的	-11287
的低	-11288
的钱	-11289
相遇	-11290
礼仪	-11291
禁毒	-11292
站位	-11293
粮油	-11294
综上	-11295
聚酯	-11296
荞麦	-11297
莉亚	-11298
菊花	-11299
落的	-11300
要对	-11301
评标	-11302
贮存	-11303
跨界	-11304
车位	-11305
逐年	-11306
问卷	-11307
问责	-11308
阿姨	-11309
首届	-11310
her	-11311
ies	-11312
ony	-11313
▁许多	-11314
为一体	-11315
亲爱的	-11316
体现出	-11317
分析和	-11318
副市长	-11319
参与了	-11320
变得更	-11321
可能有	-11322
可视化	-11323
台湾人	-11324
墨西哥	-11325
实用的	-11326
实际的	-11327
我现在	-11328
摄影师	-11329
教育局	-11330
新农村	-11331
是由于	-11332
涉及的	-11333
深刻的	-11334
留下了	-11335
的习惯	-11336
的工具	-11337
的生长	-11338
精细化	-11339
要根据	-11340
要求和	-11341
陆一伟	-11342
主题活动	-11343
全力以赴	-11344
全面提升	-11345
公共场所	-11346
其实就是	-11347
农业生产	-11348
可以分为	-11349
所提供的	-11350
政务服务	-11351
的一系列	-11352
相关工作	-11353
管理模式	-11354
的工作人员	-11355
的经营理念	-11356
PR	-11357
VD	-11358
ve	-11359
”?	-11360
一号	-11361
上行	-11362
下单	-11363
两点	-11364
串联	-11365
人均	-11366
伦理	-11367
位移	-11368
侧面	-11369
全额	-11370
写了	-11371
出土	-11372
动词	-11373
北美	-11374
十月	-11375
单价	-11376
南山	-11377
压迫	-11378
周五	-11379
基石	-11380
大海	-11381
好几	-11382
守法	-11383
容纳	-11384
就近	-11385
年青	-11386
开机	-11387
录用	-11388
影展	-11389
很低	-11390
得救	-11391
投机	-11392
报销	-11393
拿下	-11394
推送	-11395
摩托	-11396
撞击	-11397
斯的	-11398
时分	-11399
桂花	-11400
检索	-11401
深厚	-11402
温差	-11403
灌溉	-11404
火炬	-11405
犹如	-11406
独具	-11407
球阀	-11408
生技	-11409
病理	-11410
痘痘	-11411
直言	-11412
看重	-11413
真人	-11414
瞄准	-11415
研判	-11416
竭诚	-11417
而去	-11418
聆听	-11419
职员	-11420
自强	-11421
花朵	-11422
花生	-11423
获利	-11424
蓝天	-11425
薪酬	-11426
螺杆	-11427
螺纹	-11428
误区	-11429
诱导	-11430
说说	-11431
调配	-11432
这套	-11433
进场	-11434
退还	-11435
金色	-11436
难忘	-11437
静脉	-11438
预估	-11439
飞速	-11440
餐馆	-11441
PET	-11442
pen	-11443
▁所有	-11444
▁无论	-11445
▁欢迎	-11446
为实现	-11447
为重点	-11448
代理人	-11449
但我们	-11450
充足的	-11451
免费的	-11452
公布了	-11453
创新型	-11454
和市场	-11455
在一些	-11456
处理后	-11457
学年度	-11458
宣传部	-11459
局限性	-11460
幸福感	-11461
情况和	-11462
愈来愈	-11463
我们还	-11464
新台币	-11465
方向盘	-11466
有能力	-11467
流水句	-11468
的安装	-11469
稳增长	-11470
纳税人	-11471
表现在	-11472
试验机	-11473
较小的	-11474
还能够	-11475
这部分	-11476
通常是	-11477
非常大	-11478
马拉松	-11479
高分子	-11480
企业文化	-11481
全产业链	-11482
参加会议	-11483
发展规划	-11484
发现自己	-11485
各行各业	-11486
大型企业	-11487
学院院长	-11488
工艺流程	-11489
换句话说	-11490
比较好的	-11491
用户提供	-11492
社交媒体	-11493
科研人员	-11494
融合发展	-11495
行业标准	-11496
还有很多	-11497
的一个重要	-11498
进一步完善	-11499
为群众办实事	-11500
(《	-11501
eg	-11502
▁会	-11503
▁看	-11504
三点	-11505
上映	-11506
不来	-11507
不由	-11508
专心	-11509
中考	-11510
也曾	-11511
交代	-11512
人造	-11513
传感	-11514
何况	-11515
何种	-11516
俗称	-11517
全家	-11518
全是	-11519
公主	-11520
写着	-11521
出处	-11522
切除	-11523
加载	-11524
千瓦	-11525
县城	-11526
同级	-11527
名牌	-11528
哪儿	-11529
器等	-11530
图资	-11531
基站	-11532
夜市	-11533
大树	-11534
大桥	-11535
天内	-11536
威尔	-11537
学籍	-11538
安区	-11539
射线	-11540
小事	-11541
应为	-11542
应届	-11543
指针	-11544
数千	-11545
方形	-11546
昆山	-11547
末端	-11548
来访	-11549
极高	-11550
枝条	-11551
格栅	-11552
水肿	-11553
液态	-11554
点点	-11555
热带	-11556
燕燕	-11557
现将	-11558
直销	-11559
石英	-11560
砂轮	-11561
立式	-11562
管和	-11563
美感	-11564
美霖	-11565
羡慕	-11566
考研	-11567
能效	-11568
脑袋	-11569
艰辛	-11570
荆州	-11571
虫害	-11572
蝴蝶	-11573
螨虫	-11574
血糖	-11575
衰退	-11576
要去	-11577
让它	-11578
误解	-11579
说出	-11580
请假	-11581
迈向	-11582
违纪	-11583
重返	-11584
隔膜	-11585
▁国际	-11586
不小心	-11587
二维码	-11588
人类的	-11589
以下是	-11590
以前的	-11591
优化的	-11592
会发生	-11593
会议上	-11594
使我们	-11595
促进了	-11596
公开的	-11597
几年来	-11598
前所未	-11599
单纯的	-11600
可直接	-11601
如下图	-11602
家庭的	-11603
层面的	-11604
市建局	-11605
带领下	-11606
成立的	-11607
所得税	-11608
投融资	-11609
按要求	-11610
新三板	-11611
新生儿	-11612
是基于	-11613
满足了	-11614
生活在	-11615
的人工	-11616
的女性	-11617
的控制	-11618
等重点	-11619
网络的	-11620
舒适性	-11621
要做好	-11622
设计中	-11623
都会有	-11624
金利达	-11625
inux	-11626
下列情形	-11627
中国大陆	-11628
丰富多彩	-11629
产品研发	-11630
分析报告	-11631
工业互联	-11632
意识形态	-11633
教育培训	-11634
无缝钢管	-11635
环境污染	-11636
石油化工	-11637
社会组织	-11638
等离子体	-11639
经济学家	-11640
经营管理	-11641
绿色环保	-11642
负责同志	-11643
质量安全	-11644
非常简单	-11645
魔法气泡	-11646
客户的需求	-11647
重要的作用	-11648
BI	-11649
PG	-11650
SP	-11651
万能	-11652
上百	-11653
不平	-11654
余名	-11655
出战	-11656
北大	-11657
却被	-11658
古诗	-11659
只想	-11660
同工	-11661
国道	-11662
如期	-11663
宜兰	-11664
并用	-11665
归化	-11666
当场	-11667
恩典	-11668
成名	-11669
或将	-11670
戴宗	-11671
排风	-11672
收拾	-11673
无须	-11674
日趋	-11675
最少	-11676
月子	-11677
极易	-11678
消极	-11679
淋巴	-11680
湿疹	-11681
点赞	-11682
率和	-11683
率达	-11684
珍贵	-11685
稿件	-11686
筑牢	-11687
约占	-11688
而有	-11689
耐久	-11690
耗材	-11691
肠胃	-11692
腹泻	-11693
要看	-11694
计时	-11695
议会	-11696
车上	-11697
过年	-11698
连线	-11699
迷你	-11700
逃避	-11701
逆转	-11702
重于	-11703
重重	-11704
问候	-11705
黄斑	-11706
seo	-11707
▁当前	-11708
一流的	-11709
一辈子	-11710
与技术	-11711
也已经	-11712
享受到	-11713
以达到	-11714
以避免	-11715
但他们	-11716
但随着	-11717
你自己	-11718
信访件	-11719
公司将	-11720
制定的	-11721
办公楼	-11722
包装机	-11723
又一次	-11724
可采用	-11725
和要求	-11726
外交部	-11727
大大的	-11728
就像是	-11729
很高兴	-11730
性能的	-11731
戴口罩	-11732
所在的	-11733
抗氧化	-11734
无疑问	-11735
时间里	-11736
更适合	-11737
极大地	-11738
比亚迪	-11739
氨基酸	-11740
注册制	-11741
流水线	-11742
灵活性	-11743
热电偶	-11744
然后在	-11745
的实际	-11746
的课程	-11747
的重大	-11748
研究和	-11749
统计局	-11750
而且在	-11751
自治州	-11752
规格的	-11753
解放军	-11754
该设备	-11755
责任人	-11756
还是有	-11757
银行的	-11758
防腐剂	-11759
一般都是	-11760
今天我们	-11761
信用信息	-11762
安全事故	-11763
建筑工程	-11764
建设工程	-11765
拒绝接受	-11766
服务体系	-11767
毫无疑问	-11768
环境温度	-11769
生物技术	-11770
职业技能	-11771
资源共享	-11772
轨道交通	-11773
进行处理	-11774
项目经理	-11775
法定代表人	-11776
经验丰富的	-11777
质量管理体系	-11778
nt	-11779
▁把	-11780
▁赵	-11781
一丝	-11782
上月	-11783
中式	-11784
之以	-11785
书画	-11786
了个	-11787
京津	-11788
供养	-11789
偏向	-11790
写道	-11791
出轨	-11792
前锋	-11793
剧院	-11794
北区	-11795
右边	-11796
听力	-11797
和新	-11798
因地	-11799
地去	-11800
埃里	-11801
墙壁	-11802
多万	-11803
天上	-11804
就没	-11805
应变	-11806
开阔	-11807
很短	-11808
念头	-11809
情侣	-11810
感官	-11811
战绩	-11812
户籍	-11813
打出	-11814
扭转	-11815
掀起	-11816
攀升	-11817
无尽	-11818
春风	-11819
是其	-11820
柜台	-11821
欧式	-11822
欺诈	-11823
气压	-11824
汇集	-11825
沙盘	-11826
济宁	-11827
热血	-11828
特新	-11829
现今	-11830
现时	-11831
相识	-11832
眼中	-11833
粘接	-11834
粤港	-11835
红利	-11836
美景	-11837
美白	-11838
股的	-11839
行星	-11840
装有	-11841
警戒	-11842
说起	-11843
谋求	-11844
踏实	-11845
车床	-11846
陶粒	-11847
隐瞒	-11848
集结	-11849
麻辣	-11850
ava	-11851
ood	-11852
yst	-11853
▁国内	-11854
▁截至	-11855
▁报告	-11856
上下游	-11857
不相同	-11858
中药材	-11859
几年的	-11860
发出的	-11861
和一个	-11862
困难的	-11863
多层次	-11864
多样的	-11865
家里的	-11866
应用在	-11867
怎么做	-11868
意义上	-11869
执行官	-11870
排放量	-11871
提供给	-11872
收到了	-11873
效率和	-11874
服务等	-11875
生物学	-11876
的音乐	-11877
科技的	-11878
科技部	-11879
经历过	-11880
责任制	-11881
较多的	-11882
这方面	-11883
采购人	-11884
集团的	-11885
不知不觉	-11886
为了避免	-11887
从来没有	-11888
公共资源	-11889
公开发表	-11890
几个方面	-11891
只是一个	-11892
帮助我们	-11893
当地时间	-11894
我们认为	-11895
所带来的	-11896
投标文件	-11897
招标文件	-11898
文化旅游	-11899
新兴产业	-11900
有害物质	-11901
毕业证书	-11902
温馨提示	-11903
焰火网络	-11904
环氧树脂	-11905
的人来说	-11906
的时间内	-11907
综合素质	-11908
绿色金融	-11909
被执行人	-11910
集成电路	-11911
非常大的	-11912
企事业单位	-11913
符合条件的	-11914
无症状感染者	-11915
?(	-11916
LG	-11917
Sh	-11918
▁光	-11919
▁同	-11920
一组	-11921
三四	-11922
东营	-11923
丝毫	-11924
中海	-11925
仍未	-11926
保函	-11927
先天	-11928
八字	-11929
冷库	-11930
制止	-11931
医务	-11932
医用	-11933
反感	-11934
可与	-11935
多地	-11936
夺得	-11937
契约	-11938
奔跑	-11939
完好	-11940
展位	-11941
巅峰	-11942
已于	-11943
带到	-11944
我把	-11945
战役	-11946
户型	-11947
扎根	-11948
托管	-11949
护航	-11950
抵扣	-11951
拨打	-11952
擅自	-11953
改建	-11954
放缓	-11955
敏捷	-11956
斗鱼	-11957
施加	-11958
旗帜	-11959
更低	-11960
最快	-11961
此处	-11962
汗水	-11963
沙特	-11964
浇注	-11965
淬火	-11966
清晨	-11967
渲染	-11968
演技	-11969
珠海	-11970
眼泪	-11971
硬币	-11972
积水	-11973
笑着	-11974
粉碎	-11975
粒径	-11976
约有	-11977
绽放	-11978
者在	-11979
而知	-11980
脸部	-11981
自杀	-11982
萤幕	-11983
血脂	-11984
证照	-11985
赠送	-11986
轮毂	-11987
软管	-11988
避孕	-11989
阳极	-11990
非遗	-11991
高龄	-11992
ETF	-11993
for	-11994
”——	-11995
▁此前	-11996
▁网络	-11997
不完全	-11998
与国际	-11999
为指导	-12000
了下来	-12001
事件的	-12002
作出了	-12003
元器件	-12004
分析了	-12005
切割机	-12006
副校长	-12007
十分钟	-12008
均采用	-12009
存在于	-12010
小时的	-12011
工业和	-12012
帮助下	-12013
归属于	-12014
手续费	-12015
护栏网	-12016
放置在	-12017
每年的	-12018
汽车的	-12019
润滑脂	-12020
男人的	-12021
的事业	-12022
的家庭	-12023
经意间	-12024
胡萝卜	-12025
自己去	-12026
舒城县	-12027
转移到	-12028
锂电池	-12029
专精特新	-12030
使用方便	-12031
充分肯定	-12032
医护人员	-12033
工程学院	-12034
干部职工	-12035
建筑模板	-12036
所以我们	-12037
更多信息	-12038
相关政策	-12039
积极探索	-12040
质量管理	-12041
项目申报	-12042
中国科学院	-12043
af	-12044
▁i	-12045
▁◇	-12046
▁宋	-12047
一门	-12048
上证	-12049
不定	-12050
不法	-12051
不移	-12052
不育	-12053
两类	-12054
九月	-12055
书的	-12056
五百	-12057
亲友	-12058
但从	-12059
但对	-12060
全场	-12061
公投	-12062
冲刺	-12063
冲动	-12064
几百	-12065
凡是	-12066
初衷	-12067
加药	-12068
华丽	-12069
发给	-12070
古城	-12071
名号	-12072
喜剧	-12073
国控	-12074
地为	-12075
地藏	-12076
坏了	-12077
失踪	-12078
头皮	-12079
夸张	-12080
履约	-12081
工匠	-12082
干式	-12083
年至	-12084
并可	-12085
开庭	-12086
开端	-12087
开采	-12088
心境	-12089
思议	-12090
感激	-12091
护照	-12092
抽取	-12093
探头	-12094
推崇	-12095
推特	-12096
提质	-12097
收纳	-12098
标段	-12099
树叶	-12100
步道	-12101
民航	-12102
海底	-12103
海水	-12104
淄博	-12105
渐进	-12106
渤海	-12107
澎湃	-12108
珠宝	-12109
甲基	-12110
眼的	-12111
礼品	-12112
突变	-12113
竞价	-12114
繁多	-12115
自带	-12116
荧光	-12117
药店	-12118
表层	-12119
装卸	-12120
要将	-12121
触控	-12122
讲师	-12123
贵宾	-12124
赛前	-12125
转办	-12126
进修	-12127
重生	-12128
金花	-12129
页岩	-12130
首度	-12131
NAD	-12132
ect	-12133
ver	-12134
▁下面	-12135
▁未来	-12136
不具备	-12137
串串香	-12138
也会有	-12139
农作物	-12140
去医院	-12141
可以为	-12142
各地区	-12143
吸尘器	-12144
和控制	-12145
家长们	-12146
就不能	-12147
届全国	-12148
工业化	-12149
强度和	-12150
总决赛	-12151
想不到	-12152
无疑是	-12153
显微镜	-12154
最大化	-12155
有限的	-12156
每个月	-12157
热交换	-12158
的增长	-12159
的大力	-12160
的措施	-12161
的高速	-12162
积累了	-12163
胆固醇	-12164
表面上	-12165
还是很	-12166
郑州市	-12167
里程碑	-12168
铝单板	-12169
随时随	-12170
优惠政策	-12171
公司拥有	-12172
完全没有	-12173
尽量避免	-12174
指导意见	-12175
教师资格	-12176
是一家集	-12177
正常工作	-12178
治疗方法	-12179
的方式来	-12180
积极推进	-12181
管理中心	-12182
管理平台	-12183
粤港澳大	-12184
经营范围	-12185
职业技术	-12186
证明材料	-12187
越来越大	-12188
身心健康	-12189
▁县级以上	-12190
采用金利达	-12191
商标代理机构	-12192
DD	-12193
PO	-12194
▁九	-12195
万事	-12196
上手	-12197
中西	-12198
亦有	-12199
仍旧	-12200
但它	-12201
你所	-12202
你有	-12203
便民	-12204
倒数	-12205
值为	-12206
光谱	-12207
党和	-12208
发声	-12209
古月	-12210
可观	-12211
周转	-12212
命名	-12213
售卖	-12214
国会	-12215
复核	-12216
外来	-12217
多大	-12218
大同	-12219
婆婆	-12220
对标	-12221
射门	-12222
将要	-12223
小康	-12224
年版	-12225
座的	-12226
建党	-12227
开水	-12228
征集	-12229
心力	-12230
悲伤	-12231
想必	-12232
愤怒	-12233
抑郁	-12234
拿来	-12235
排斥	-12236
散发	-12237
敬业	-12238
整天	-12239
施肥	-12240
早安	-12241
时许	-12242
有余	-12243
本法	-12244
染料	-12245
桌子	-12246
歌声	-12247
永利	-12248
江湖	-12249
污垢	-12250
汽油	-12251
没能	-12252
泵站	-12253
流向	-12254
测验	-12255
浦东	-12256
淡水	-12257
清净	-12258
清零	-12259
爆料	-12260
牌的	-12261
留存	-12262
的白	-12263
秋冬	-12264
紧迫	-12265
约会	-12266
而异	-12267
致电	-12268
茁壮	-12269
落下	-12270
见了	-12271
解密	-12272
诊治	-12273
试题	-12274
负压	-12275
越是	-12276
转到	-12277
输卵	-12278
过载	-12279
进军	-12280
进化	-12281
迫使	-12282
逐一	-12283
通俗	-12284
都可	-12285
酰胺	-12286
酿酒	-12287
采摘	-12288
重工	-12289
错的	-12290
雇佣	-12291
靠着	-12292
Web	-12293
eam	-12294
oft	-12295
▁选择	-12296
不一致	-12297
不接受	-12298
东莞市	-12299
为目的	-12300
二手车	-12301
产学研	-12302
人才的	-12303
以及在	-12304
但其实	-12305
内容和	-12306
创立于	-12307
及服务	-12308
在购买	-12309
大概是	-12310
如果能	-12311
就好了	-12312
形势下	-12313
心血管	-12314
成长的	-12315
所有权	-12316
持有的	-12317
接触到	-12318
时期的	-12319
更需要	-12320
模式的	-12321
的代表	-12322
的思想	-12323
的文件	-12324
的母亲	-12325
相对应	-12326
确定了	-12327
确定的	-12328
等措施	-12329
要做到	-12330
适用的	-12331
隶属于	-12332
非常高	-12333
餐饮业	-12334
▁实际上	-12335
一个好的	-12336
不用担心	-12337
个工作日	-12338
为了保证	-12339
亚洲金属	-12340
党风廉政	-12341
医疗卫生	-12342
发展改革	-12343
受欢迎的	-12344
品牌形象	-12345
工业企业	-12346
应急预案	-12347
很重要的	-12348
新陈代谢	-12349
深入了解	-12350
特别注意	-12351
生活习惯	-12352
还有一些	-12353
顺利进行	-12354
▁北京时间	-12355
首席执行官	-12356
,‘	-12357
CH	-12358
DM	-12359
]。	-12360
▁先	-12361
▁来	-12362
三层	-12363
世的	-12364
亦是	-12365
令我	-12366
作息	-12367
傣族	-12368
公分	-12369
减震	-12370
分局	-12371
办结	-12372
加码	-12373
助手	-12374
匈奴	-12375
半岛	-12376
占到	-12377
压铸	-12378
口气	-12379
台的	-12380
司马	-12381
合唱	-12382
同曦	-12383
周岁	-12384
回落	-12385
国度	-12386
外套	-12387
多余	-12388
奠定	-12389
妨碍	-12390
安康	-12391
定型	-12392
宪法	-12393
封面	-12394
将与	-12395
尊严	-12396
就餐	-12397
屏障	-12398
履职	-12399
年均	-12400
年检	-12401
店里	-12402
开出	-12403
总的	-12404
我最	-12405
所称	-12406
抽查	-12407
持仓	-12408
挂在	-12409
指纹	-12410
揭示	-12411
摄取	-12412
教务	-12413
教堂	-12414
旁的	-12415
日产	-12416
时隔	-12417
歌唱	-12418
比方	-12419
毛泽	-12420
水位	-12421
沉积	-12422
测评	-12423
海滩	-12424
爱上	-12425
片段	-12426
物件	-12427
的单	-12428
的法	-12429
知情	-12430
矩阵	-12431
石雕	-12432
称重	-12433
索赔	-12434
缘由	-12435
而易	-12436
茂名	-12437
西凤	-12438
触发	-12439
象棋	-12440
赶快	-12441
转身	-12442
轻重	-12443
迅猛	-12444
过得	-12445
选定	-12446
配上	-12447
除湿	-12448
面子	-12449
SEO	-12450
TOP	-12451
You	-12452
ins	-12453
也因此	-12454
了一条	-12455
京津冀	-12456
他们会	-12457
做一些	-12458
出生于	-12459
创造出	-12460
在其中	-12461
在地上	-12462
在没有	-12463
在社会	-12464
在这些	-12465
完整性	-12466
实力的	-12467
将达到	-12468
尤其在	-12469
影响了	-12470
往往是	-12471
战略性	-12472
打破了	-12473
是一场	-12474
是自己	-12475
毛泽东	-12476
测试仪	-12477
申请表	-12478
电路板	-12479
的最好	-12480
的法律	-12481
的经典	-12482
的职业	-12483
看不见	-12484
精彩的	-12485
英特尔	-12486
触摸屏	-12487
运行的	-12488
还是会	-12489
适合于	-12490
都应该	-12491
锦标赛	-12492
问题上	-12493
▁?。?	-12494
为主题的	-12495
人民医院	-12496
可以满足	-12497
官方网站	-12498
实用新型	-12499
已经开始	-12500
意义上的	-12501
文化遗产	-12502
生活方式	-12503
研究开发	-12504
研究报告	-12505
综合利用	-12506
▁另一方面	-12507
一定要注意	-12508
主要负责人	-12509
人们的生活	-12510
和社会保障	-12511
法轮功学员	-12512
发明专利方案	-12513
生态环境保护督察	-12514
采用金利达发明专利方案	-12515
AL	-12516
MB	-12517
Wi	-12518
km	-12519
”:	-12520
▁东	-12521
▁地	-12522
不合	-12523
不败	-12524
为由	-12525
乡市	-12526
交际	-12527
亦可	-12528
住建	-12529
佣金	-12530
保修	-12531
再说	-12532
凡事	-12533
出自	-12534
则为	-12535
则在	-12536
利物	-12537
南非	-12538
发芽	-12539
名誉	-12540
后就	-12541
四处	-12542
团员	-12543
地基	-12544
坐着	-12545
增设	-12546
复旦	-12547
外包	-12548
大米	-12549
天府	-12550
奢侈	-12551
女神	-12552
安卓	-12553
尊敬	-12554
山市	-12555
巡逻	-12556
平滑	-12557
年份	-12558
底下	-12559
建功	-12560
往下	-12561
往来	-12562
总共	-12563
成形	-12564
我去	-12565
所学	-12566
把我	-12567
抬头	-12568
散步	-12569
数目	-12570
方特	-12571
日元	-12572
标示	-12573
正值	-12574
民办	-12575
海淀	-12576
深的	-12577
混淆	-12578
爸妈	-12579
物种	-12580
现身	-12581
的下	-12582
皮书	-12583
皮带	-12584
箱体	-12585
粒度	-12586
红包	-12587
网购	-12588
聘请	-12589
自卑	-12590
花岗	-12591
蒸气	-12592
警报	-12593
轻度	-12594
较快	-12595
辛辣	-12596
运会	-12597
进食	-12598
通关	-12599
遇上	-12600
遗址	-12601
长途	-12602
顺着	-12603
高地	-12604
高管	-12605
ank	-12606
▁具有	-12607
▁近期	-12608
为契机	-12609
为社会	-12610
体育场	-12611
候选人	-12612
倾向于	-12613
共同的	-12614
净化器	-12615
力量的	-12616
原住民	-12617
太大的	-12618
就应该	-12619
工作量	-12620
年全国	-12621
成本高	-12622
投入到	-12623
日报道	-12624
是一次	-12625
来解决	-12626
根本上	-12627
混合物	-12628
留下的	-12629
的一份	-12630
的单位	-12631
的建筑	-12632
的氛围	-12633
的自然	-12634
研究者	-12635
第一步	-12636
等原因	-12637
系统性	-12638
被评为	-12639
试剂盒	-12640
课程的	-12641
贵州省	-12642
辅导员	-12643
运动的	-12644
这个人	-12645
银行卡	-12646
领导的	-12647
▁the	-12648
专业知识	-12649
中国移动	-12650
产业集群	-12651
信息公开	-12652
发现问题	-12653
可以提高	-12654
可以进行	-12655
品牌建设	-12656
市场经济	-12657
应当依法	-12658
投资项目	-12659
政务公开	-12660
激光雷达	-12661
理论学习	-12662
竞争优势	-12663
纷纷表示	-12664
综合考虑	-12665
角度来看	-12666
这件事情	-12667
党支部书记	-12668
优化营商环境	-12669
粤港澳大湾区	-12670
%～	-12671
DB	-12672
IB	-12673
Mo	-12674
mA	-12675
tt	-12676
▁徐	-12677
万户	-12678
三千	-12679
三相	-12680
不作	-12681
不通	-12682
不顾	-12683
两地	-12684
严苛	-12685
中钢	-12686
为我	-12687
人居	-12688
人次	-12689
伊斯	-12690
伺服	-12691
作的	-12692
保暖	-12693
做人	-12694
军人	-12695
净土	-12696
分流	-12697
列出	-12698
助学	-12699
南通	-12700
原文	-12701
发觉	-12702
各区	-12703
各省	-12704
四肢	-12705
团委	-12706
夺冠	-12707
如其	-12708
字段	-12709
宜居	-12710
实业	-12711
实名	-12712
审慎	-12713
尼龙	-12714
展厅	-12715
布朗	-12716
开标	-12717
异地	-12718
往返	-12719
恋情	-12720
悲观	-12721
我又	-12722
拉克	-12723
摆在	-12724
数理	-12725
时会	-12726
昂贵	-12727
普惠	-12728
最美	-12729
本期	-12730
水池	-12731
沉默	-12732
注定	-12733
活的	-12734
液位	-12735
深层	-12736
火热	-12737
熟知	-12738
知晓	-12739
石榴	-12740
系的	-12741
编译	-12742
胚胎	-12743
腻子	-12744
花开	-12745
落户	-12746
补肾	-12747
装机	-12748
装载	-12749
试样	-12750
谈及	-12751
豆腐	-12752
辣椒	-12753
达人	-12754
达峰	-12755
近些	-12756
这儿	-12757
选出	-12758
钢的	-12759
钻石	-12760
问道	-12761
阻挡	-12762
顶层	-12763
首款	-12764
高原	-12765
Mag	-12766
▁疫情	-12767
▁系列	-12768
▁这样	-12769
▁通常	-12770
也不同	-12771
交易日	-12772
什么呢	-12773
俗话说	-12774
保温板	-12775
分钟后	-12776
创造性	-12777
压力表	-12778
参与者	-12779
只要是	-12780
后备箱	-12781
告诉他	-12782
哪家好	-12783
喜爱的	-12784
实现对	-12785
建筑业	-12786
往往会	-12787
我可以	-12788
政策和	-12789
方法的	-12790
是不能	-12791
有以下	-12792
有效期	-12793
氮化镓	-12794
犯罪的	-12795
独有的	-12796
理论与	-12797
的一天	-12798
的交易	-12799
的实施	-12800
的意义	-12801
的种类	-12802
目前在	-12803
直接的	-12804
管理等	-12805
纤维素	-12806
经纪人	-12807
群体的	-12808
老师和	-12809
节假日	-12810
规定了	-12811
詹姆斯	-12812
请不要	-12813
转换成	-12814
这款车	-12815
选择性	-12816
配备了	-12817
银行业	-12818
阿弥陀	-12819
风险的	-12820
高效率	-12821
为代表的	-12822
体制机制	-12823
全体党员	-12824
分支机构	-12825
加工工艺	-12826
家政服务	-12827
导热系数	-12828
所产生的	-12829
环境监测	-12830
电缆桥架	-12831
自由贸易	-12832
血液循环	-12833
行动计划	-12834
贫困地区	-12835
适用范围	-12836
非常好的	-12837
餐饮行业	-12838
▁除此之外	-12839
监督管理局	-12840
知识产权保护	-12841
BT	-12842
CE	-12843
CF	-12844
NB	-12845
OM	-12846
QD	-12847
aw	-12848
▁更	-12849
▁爱	-12850
一头	-12851
一幅	-12852
一心	-12853
中秋	-12854
为题	-12855
乐于	-12856
乒乓	-12857
买的	-12858
了的	-12859
传来	-12860
低下	-12861
信徒	-12862
光辉	-12863
全资	-12864
内政	-12865
再现	-12866
再用	-12867
出演	-12868
制宜	-12869
刻意	-12870
劳工	-12871
勘探	-12872
十佳	-12873
原告	-12874
反光	-12875
名叫	-12876
向东	-12877
听得	-12878
吸气	-12879
喷洒	-12880
城中	-12881
塞尔	-12882
存取	-12883
带入	-12884
平日	-12885
开盘	-12886
异物	-12887
张家	-12888
当做	-12889
录制	-12890
往上	-12891
得太	-12892
德甲	-12893
必将	-12894
忠实	-12895
急剧	-12896
才可	-12897
打进	-12898
扭矩	-12899
指责	-12900
无声	-12901
无私	-12902
星空	-12903
晋升	-12904
晋级	-12905
村的	-12906
汲取	-12907
法则	-12908
波长	-12909
深夜	-12910
漏水	-12911
畸形	-12912
的神	-12913
皮损	-12914
益处	-12915
磁场	-12916
糜烂	-12917
织物	-12918
而对	-12919
肇庆	-12920
肩负	-12921
胶原	-12922
胶粘	-12923
脾虚	-12924
自制	-12925
致敬	-12926
芬兰	-12927
芳香	-12928
草原	-12929
虽说	-12930
词汇	-12931
误导	-12932
请您	-12933
过低	-12934
这篇	-12935
送上	-12936
逃离	-12937
遥控	-12938
酸盐	-12939
重型	-12940
阵营	-12941
高山	-12942
黑马	-12943
CCD	-12944
MBA	-12945
box	-12946
ult	-12947
▁全球	-12948
三季度	-12949
不平衡	-12950
不正当	-12951
会发现	-12952
体内的	-12953
便携式	-12954
六个月	-12955
分享了	-12956
利物浦	-12957
加盟店	-12958
半小时	-12959
只是在	-12960
各自的	-12961
后面的	-12962
因为你	-12963
在高温	-12964
如今的	-12965
实现的	-12966
少量的	-12967
就行了	-12968
并发症	-12969
开放的	-12970
必须有	-12971
攻击者	-12972
新业态	-12973
旅行社	-12974
最适合	-12975
有网友	-12976
没有了	-12977
生产力	-12978
的广告	-12979
的空气	-12980
的范围	-12981
的药物	-12982
确保了	-12983
而言之	-12984
贵金属	-12985
铁观音	-12986
项目部	-12987
高尔夫	-12988
ames	-12989
一如既往	-12990
不可思议	-12991
不断增加	-12992
专业人士	-12993
专项资金	-12994
中国市场	-12995
产业结构	-12996
刑事责任	-12997
发展方向	-12998
在我们的	-12999
基金公司	-13000
媒体报道	-13001
子宫肌瘤	-13002
对口帮扶	-13003
帮助企业	-13004
建筑装饰	-13005
感受到了	-13006
操作人员	-13007
更多的是	-13008
未成年人	-13009
本场比赛	-13010
校企合作	-13011
消防安全	-13012
环境影响	-13013
管理机构	-13014
这是一种	-13015
前所未有的	-13016
的主要原因	-13017
解决问题的	-13018
投资有限公司	-13019
需要注意的是	-13020
AW	-13021
GI	-13022
ep	-13023
zh	-13024
▁.	-13025
▁曾	-13026
▁让	-13027
一万	-13028
一波	-13029
万一	-13030
上台	-13031
不外	-13032
专员	-13033
世人	-13034
两周	-13035
中信	-13036
二楼	-13037
于此	-13038
低调	-13039
你也	-13040
佳的	-13041
修饰	-13042
偏财	-13043
充值	-13044
再来	-13045
凭着	-13046
出游	-13047
分化	-13048
分担	-13049
刑法	-13050
北极	-13051
占领	-13052
压抑	-13053
取胜	-13054
只为	-13055
只在	-13056
可选	-13057
呵护	-13058
坦言	-13059
墙上	-13060
增压	-13061
多变	-13062
大妈	-13063
大笑	-13064
太保	-13065
夫人	-13066
察觉	-13067
展馆	-13068
帕尔	-13069
干线	-13070
徒刑	-13071
患病	-13072
我看	-13073
或以	-13074
打下	-13075
扩充	-13076
抵御	-13077
拦截	-13078
拨款	-13079
放假	-13080
无助	-13081
朗读	-13082
本品	-13083
本月	-13084
树的	-13085
梦境	-13086
每隔	-13087
毛病	-13088
民俗	-13089
水上	-13090
流域	-13091
海鲜	-13092
火力	-13093
烧结	-13094
瓶子	-13095
疏松	-13096
直属	-13097
相爱	-13098
礼貌	-13099
秒钟	-13100
端口	-13101
老虎	-13102
耽误	-13103
聊城	-13104
自负	-13105
至此	-13106
蓝图	-13107
表态	-13108
要好	-13109
讲到	-13110
豆瓣	-13111
辨别	-13112
这片	-13113
选题	-13114
邻近	-13115
配色	-13116
银河	-13117
防洪	-13118
阶梯	-13119
阿晴	-13120
降到	-13121
陷阱	-13122
顽固	-13123
领悟	-13124
颜料	-13125
飙升	-13126
PPO	-13127
ele	-13128
lus	-13129
▁学习	-13130
不满意	-13131
与合作	-13132
主要为	-13133
举办了	-13134
了我的	-13135
从一个	-13136
众传媒	-13137
低成本	-13138
你怎么	-13139
副部长	-13140
发表了	-13141
和建议	-13142
商务部	-13143
在欧洲	-13144
就是说	-13145
市场和	-13146
成交价	-13147
成功率	-13148
我们所	-13149
拥有的	-13150
提到过	-13151
无纺布	-13152
无障碍	-13153
是全球	-13154
有帮助	-13155
来选择	-13156
现实的	-13157
球队的	-13158
的介绍	-13159
的品质	-13160
的有关	-13161
的照片	-13162
的程度	-13163
的身体	-13164
皮肤的	-13165
矿泉水	-13166
碳达峰	-13167
第一位	-13168
等环节	-13169
管理者	-13170
耐磨性	-13171
能够让	-13172
自己也	-13173
节省了	-13174
表达了	-13175
认定为	-13176
转变为	-13177
过多的	-13178
过程的	-13179
这些人	-13180
重大的	-13181
阳离子	-13182
****	-13183
Book	-13184
万元以上	-13185
中的应用	-13186
亲子鉴定	-13187
但是如果	-13188
劳动合同	-13189
国际关系	-13190
地理位置	-13191
坚定不移	-13192
女性朋友	-13193
恢复正常	-13194
我们已经	-13195
房地产税	-13196
按照国家	-13197
来电咨询	-13198
注册商标	-13199
结果显示	-13200
这样可以	-13201
非常适合	-13202
HTTPS	-13203
证券交易所	-13204
▁Galaxy	-13205
DC	-13206
Ph	-13207
ib	-13208
▁市	-13209
一小	-13210
万辆	-13211
三家	-13212
三项	-13213
不相	-13214
不远	-13215
与前	-13216
专卖	-13217
世上	-13218
义乌	-13219
之事	-13220
之气	-13221
二者	-13222
人寿	-13223
从不	-13224
会更	-13225
传闻	-13226
伴侣	-13227
全都	-13228
八年	-13229
共用	-13230
出差	-13231
剥线	-13232
勒索	-13233
协力	-13234
名列	-13235
否定	-13236
含水	-13237
听从	-13238
命中	-13239
地带	-13240
均在	-13241
基调	-13242
塞罗	-13243
增生	-13244
夏日	-13245
外卖	-13246
外在	-13247
好玩	-13248
孤岛	-13249
学好	-13250
守信	-13251
安防	-13252
寒假	-13253
对新	-13254
尽责	-13255
帮我	-13256
平原	-13257
心肌	-13258
念诵	-13259
想做	-13260
打扮	-13261
扣式	-13262
招呼	-13263
招牌	-13264
推移	-13265
收款	-13266
放开	-13267
放疗	-13268
新春	-13269
日渐	-13270
早晚	-13271
机票	-13272
杀人	-13273
果断	-13274
栽种	-13275
梅花	-13276
梦中	-13277
梦里	-13278
此事	-13279
残酷	-13280
毒性	-13281
水路	-13282
沙滩	-13283
法案	-13284
清澈	-13285
点缀	-13286
烟草	-13287
牵涉	-13288
王者	-13289
生肖	-13290
用法	-13291
的书	-13292
的四	-13293
监事	-13294
盛典	-13295
精子	-13296
繁忙	-13297
红的	-13298
纯净	-13299
维基	-13300
绿豆	-13301
罢了	-13302
耗费	-13303
菜品	-13304
薪水	-13305
螺钉	-13306
行列	-13307
衣柜	-13308
表扬	-13309
表述	-13310
设想	-13311
评判	-13312
趋于	-13313
身处	-13314
转账	-13315
转运	-13316
较弱	-13317
较短	-13318
过量	-13319
返校	-13320
这事	-13321
追加	-13322
量为	-13323
铝箔	-13324
锈蚀	-13325
首创	-13326
默契	-13327
III	-13328
INE	-13329
PHP	-13330
ars	-13331
——“	-13332
▁利用	-13333
下一代	-13334
主教练	-13335
也表示	-13336
以提高	-13337
任意球	-13338
会比较	-13339
再一次	-13340
制造的	-13341
医学院	-13342
双眼皮	-13343
可行的	-13344
台中市	-13345
在同一	-13346
奥斯卡	-13347
对社会	-13348
将自己	-13349
将通过	-13350
我们来	-13351
把这些	-13352
支付的	-13353
教育和	-13354
方便的	-13355
日晚间	-13356
有机肥	-13357
期间的	-13358
本条例	-13359
注册的	-13360
热水器	-13361
生活和	-13362
电机的	-13363
的保护	-13364
的区别	-13365
的情绪	-13366
的根本	-13367
等项目	-13368
管理与	-13369
管理层	-13370
给出了	-13371
绝对是	-13372
要不要	-13373
说明了	-13374
还记得	-13375
非金属	-13376
颁发的	-13377
领导者	-13378
▁本公司	-13379
充分考虑	-13380
光伏发电	-13381
党和国家	-13382
党组书记	-13383
兴众传媒	-13384
具体情况	-13385
受到影响	-13386
只有一个	-13387
同比下降	-13388
在自己的	-13389
大家可以	-13390
如果我们	-13391
市场规模	-13392
开发人员	-13393
排放标准	-13394
提供一个	-13395
生产成本	-13396
税务机关	-13397
紧紧围绕	-13398
进行调整	-13399
高品质的	-13400
▁一般来说	-13401
为大家介绍	-13402
优质的服务	-13403
生产过程中	-13404
Tr	-13405
▁n	-13406
▁两	-13407
▁双	-13408
▁后	-13409
一类	-13410
上场	-13411
与你	-13412
业余	-13413
丝绸	-13414
两端	-13415
中不	-13416
乐动	-13417
云顶	-13418
互利	-13419
交织	-13420
亲近	-13421
人机	-13422
值班	-13423
免除	-13424
其后	-13425
前置	-13426
力强	-13427
勉强	-13428
卡车	-13429
右手	-13430
后代	-13431
后可	-13432
周六	-13433
唱歌	-13434
嘉兴	-13435
回了	-13436
地处	-13437
多半	-13438
她是	-13439
威力	-13440
安稳	-13441
实处	-13442
寄生	-13443
寓意	-13444
对您	-13445
对症	-13446
少于	-13447
帖子	-13448
店内	-13449
店员	-13450
开办	-13451
志工	-13452
思念	-13453
性感	-13454
愈合	-13455
我将	-13456
我能	-13457
或有	-13458
打响	-13459
报批	-13460
拘留	-13461
挂职	-13462
排序	-13463
提议	-13464
插件	-13465
救治	-13466
新社	-13467
易懂	-13468
曲折	-13469
更正	-13470
月光	-13471
有种	-13472
望着	-13473
本色	-13474
正直	-13475
毫克	-13476
涉企	-13477
灭菌	-13478
热衷	-13479
热议	-13480
琉璃	-13481
电台	-13482
登山	-13483
盛宴	-13484
紧固	-13485
红斑	-13486
纯度	-13487
细微	-13488
续约	-13489
综服	-13490
自古	-13491
芝麻	-13492
苏武	-13493
草莓	-13494
薄的	-13495
请问	-13496
谈谈	-13497
踏上	-13498
身后	-13499
辆车	-13500
过热	-13501
道歉	-13502
采纳	-13503
顿时	-13504
预示	-13505
题为	-13506
风暴	-13507
高强	-13508
cel	-13509
omp	-13510
raz	-13511
▁专家	-13512
▁在此	-13513
▁学生	-13514
▁日前	-13515
▁时间	-13516
▁英国	-13517
中表示	-13518
中进行	-13519
中长期	-13520
为推动	-13521
了这个	-13522
什么事	-13523
佛山市	-13524
公里的	-13525
刺激性	-13526
及其它	-13527
发病率	-13528
吉林省	-13529
和文化	-13530
回来了	-13531
固定的	-13532
在日常	-13533
天花板	-13534
工人的	-13535
应根据	-13536
想办法	-13537
日本的	-13538
日消息	-13539
明白了	-13540
显示出	-13541
最佳的	-13542
有更多	-13543
构成了	-13544
正规的	-13545
气体的	-13546
甘肃省	-13547
申请书	-13548
的商业	-13549
的好坏	-13550
的检测	-13551
而产生	-13552
西安市	-13553
这几年	-13554
都无法	-13555
阴离子	-13556
音乐会	-13557
颜色的	-13558
Tube	-13559
不同的是	-13560
事业发展	-13561
交流合作	-13562
仔细观察	-13563
全球经济	-13564
可以依法	-13565
可以考虑	-13566
商标注册	-13567
团体标准	-13568
大多数人	-13569
如何选择	-13570
学士学位	-13571
尤为重要	-13572
工作机制	-13573
工作环境	-13574
投入使用	-13575
投资者的	-13576
推广应用	-13577
施工现场	-13578
明确提出	-13579
检测机构	-13580
没有办法	-13581
深入推进	-13582
电动汽车	-13583
监管部门	-13584
竞争力的	-13585
联系电话	-13586
自然科学	-13587
认真落实	-13588
该怎么办	-13589
贡献力量	-13590
阿弥陀佛	-13591
坚实的基础	-13592
技术的发展	-13593
核心竞争力	-13594
是非常重要的	-13595
科技成果转化	-13596
高质量发展的	-13597
▁值得一提的是	-13598
RS	-13599
Th	-13600
Wh	-13601
▁+	-13602
一堂	-13603
一审	-13604
一贯	-13605
一首	-13606
万家	-13607
中甲	-13608
为他	-13609
乘车	-13610
二年	-13611
亚博	-13612
交纳	-13613
从容	-13614
任命	-13615
伤心	-13616
体操	-13617
余家	-13618
便秘	-13619
借口	-13620
借着	-13621
军的	-13622
出新	-13623
分层	-13624
创下	-13625
剂和	-13626
削减	-13627
千金	-13628
口岸	-13629
台阶	-13630
后将	-13631
后方	-13632
向来	-13633
和华	-13634
哈佛	-13635
团聚	-13636
图表	-13637
型和	-13638
外伤	-13639
夜里	-13640
天赋	-13641
她也	-13642
季后	-13643
左侧	-13644
年薪	-13645
幼稚	-13646
建于	-13647
很不	-13648
德州	-13649
情趣	-13650
截面	-13651
所知	-13652
掌声	-13653
探寻	-13654
推向	-13655
撕碎	-13656
故乡	-13657
新娘	-13658
暑期	-13659
朝廷	-13660
村里	-13661
杰克	-13662
板和	-13663
构思	-13664
武磊	-13665
毛发	-13666
氢气	-13667
氢能	-13668
求助	-13669
派的	-13670
流出	-13671
消杀	-13672
溶于	-13673
滤芯	-13674
滨州	-13675
白银	-13676
盆景	-13677
磨练	-13678
科的	-13679
索引	-13680
纹理	-13681
缓缓	-13682
缘故	-13683
美团	-13684
联通	-13685
西甲	-13686
该项	-13687
读取	-13688
谴责	-13689
贺卡	-13690
超高	-13691
足迹	-13692
跟你	-13693
路透	-13694
车库	-13695
辞职	-13696
退火	-13697
通往	-13698
通话	-13699
遏制	-13700
钢化	-13701
阵列	-13702
降临	-13703
随身	-13704
餐具	-13705
Mac	-13706
ier	-13707
oro	-13708
▁Ad	-13709
▁上述	-13710
▁人格	-13711
▁后来	-13712
▁对此	-13713
▁点击	-13714
▁而在	-13715
不属于	-13716
为他们	-13717
也包括	-13718
人物的	-13719
他们对	-13720
具备了	-13721
动植物	-13722
即使在	-13723
又一个	-13724
发生后	-13725
增长的	-13726
如果要	-13727
小编就	-13728
工信部	-13729
市中心	-13730
应避免	-13731
性功能	-13732
意识的	-13733
我们都	-13734
抗冲击	-13735
拉力计	-13736
是一部	-13737
来完成	-13738
法学院	-13739
洗衣机	-13740
用户对	-13741
的产生	-13742
的正确	-13743
的理想	-13744
的艺术	-13745
的认可	-13746
的趋势	-13747
的风格	-13748
精致的	-13749
结束了	-13750
能有效	-13751
输卵管	-13752
还具有	-13753
集中于	-13754
~~~~	-13755
专项行动	-13756
交通安全	-13757
准备工作	-13758
发挥作用	-13759
复合材料	-13760
宣传教育	-13761
就是这样	-13762
年轻人的	-13763
我不知道	-13764
有关事项	-13765
服务项目	-13766
火锅底料	-13767
由此可见	-13768
科技公司	-13769
等领域的	-13770
管理水平	-13771
系列活动	-13772
统计资料	-13773
综合服务	-13774
职能部门	-13775
视频会议	-13776
资格审查	-13777
部分组成	-13778
顺利完成	-13779
亚洲金属网	-13780
人民币汇率	-13781
单位和个人	-13782
犯罪嫌疑人	-13783
硕士研究生	-13784
城市管理执法	-13785
管理有限公司	-13786
重要讲话精神	-13787
我为群众办实事	-13788
科技股份有限公司	-13789
FL	-13790
Me	-13791
OH	-13792
ly	-13793
oS	-13794
▁巴	-13795
一再	-13796
不齐	-13797
中也	-13798
中铁	-13799
主治	-13800
争吵	-13801
交办	-13802
交替	-13803
交由	-13804
今晚	-13805
他又	-13806
传热	-13807
传真	-13808
低廉	-13809
倘若	-13810
入门	-13811
八个	-13812
关村	-13813
内卷	-13814
减负	-13815
出身	-13816
出院	-13817
刚性	-13818
办好	-13819
势必	-13820
勉励	-13821
包围	-13822
化为	-13823
单项	-13824
原先	-13825
参予	-13826
双赢	-13827
吵架	-13828
周二	-13829
和解	-13830
品位	-13831
喷砂	-13832
回购	-13833
坚硬	-13834
外地	-13835
大宗	-13836
孕育	-13837
守住	-13838
实干	-13839
对付	-13840
封口	-13841
将由	-13842
山的	-13843
山脉	-13844
工伤	-13845
布莱	-13846
年华	-13847
延时	-13848
惊人	-13849
成活	-13850
折弯	-13851
报复	-13852
提振	-13853
插座	-13854
收官	-13855
新股	-13856
昨晚	-13857
月饼	-13858
术语	-13859
果蔬	-13860
校内	-13861
格力	-13862
栽植	-13863
橡塑	-13864
止痛	-13865
民政	-13866
水温	-13867
沙漠	-13868
烟雾	-13869
牛市	-13870
猫咪	-13871
税率	-13872
站长	-13873
等同	-13874
紫外	-13875
纠结	-13876
纵横	-13877
罗德	-13878
翅膀	-13879
考前	-13880
背包	-13881
脚下	-13882
自建	-13883
航母	-13884
荣幸	-13885
装的	-13886
要让	-13887
视讯	-13888
讲的	-13889
跑到	-13890
近来	-13891
退回	-13892
造福	-13893
遴选	-13894
量产	-13895
鉴别	-13896
钱的	-13897
高价	-13898
高出	-13899
?!?	-13900
MPa	-13901
VIP	-13902
amp	-13903
▁政府	-13904
▁教学	-13905
▁第八	-13906
▁设计	-13907
一件事	-13908
也都是	-13909
了新的	-13910
企业与	-13911
你应该	-13912
你必须	-13913
使用中	-13914
做出的	-13915
关系到	-13916
出席了	-13917
后方可	-13918
和我们	-13919
和标准	-13920
在企业	-13921
在自己	-13922
奥地利	-13923
家人的	-13924
对孩子	-13925
局限于	-13926
工艺的	-13927
应立即	-13928
心脏病	-13929
操作的	-13930
数量的	-13931
昆明市	-13932
是无法	-13933
更新的	-13934
更深入	-13935
月开始	-13936
期徒刑	-13937
本地区	-13938
氟橡胶	-13939
然后将	-13940
电影节	-13941
男朋友	-13942
的一位	-13943
的信心	-13944
的文章	-13945
的特色	-13946
的环保	-13947
的高温	-13948
研究与	-13949
被视为	-13950
规则的	-13951
设定的	-13952
说不定	-13953
请注意	-13954
负责任	-13955
责任感	-13956
资源和	-13957
这么说	-13958
这是我	-13959
适应性	-13960
锂离子	-13961
问题和	-13962
鸦胆子	-13963
VOCs	-13964
ower	-13965
udio	-13966
三个方面	-13967
专业人员	-13968
专用发票	-13969
个性化的	-13970
代表性的	-13971
任何责任	-13972
依法追究	-13973
先进技术	-13974
公共交通	-13975
副秘书长	-13976
加快建设	-13977
发电机组	-13978
各方面的	-13979
国际合作	-13980
国际贸易	-13981
工作计划	-13982
希望通过	-13983
应当及时	-13984
废水处理	-13985
成为中国	-13986
成果转化	-13987
打造一个	-13988
数字藏品	-13989
本次会议	-13990
比较大的	-13991
用户需求	-13992
科技期刊	-13993
科研诚信	-13994
统筹协调	-13995
网络推广	-13996
蓬勃发展	-13997
这段时间	-13998
颁奖典礼	-13999
Flash	-14000
之间的关系	-14001
病原微生物	-14002
科学研究院	-14003
混凝土搅拌站	-14004
//	-14005
lt	-14006
上岗	-14007
上路	-14008
不言	-14009
不该	-14010
之作	-14011
之用	-14012
二极	-14013
人有	-14014
住的	-14015
佳绩	-14016
倍的	-14017
停工	-14018
光是	-14019
六角	-14020
典雅	-14021
兼职	-14022
冷链	-14023
出品	-14024
出道	-14025
分明	-14026
分红	-14027
分量	-14028
分队	-14029
切片	-14030
刊物	-14031
创维	-14032
勤美	-14033
区和	-14034
华中	-14035
印染	-14036
即是	-14037
受人	-14038
可燃	-14039
合乎	-14040
听证	-14041
商圈	-14042
图谱	-14043
在小	-14044
坐标	-14045
填埋	-14046
增幅	-14047
大声	-14048
如火	-14049
子孙	-14050
它会	-14051
定做	-14052
宝鸡	-14053
展区	-14054
巴斯	-14055
干的	-14056
年产	-14057
开局	-14058
弟兄	-14059
张飞	-14060
悟空	-14061
情愿	-14062
折旧	-14063
拖车	-14064
招待	-14065
拜访	-14066
无处	-14067
时不	-14068
时就	-14069
月季	-14070
查验	-14071
概述	-14072
歌词	-14073
沉降	-14074
治党	-14075
泳池	-14076
浴室	-14077
淡的	-14078
溃疡	-14079
滋润	-14080
点亮	-14081
电工	-14082
界定	-14083
白的	-14084
笔录	-14085
箭牌	-14086
紧扣	-14087
而我	-14088
脱毛	-14089
芽庄	-14090
药效	-14091
贫血	-14092
贴合	-14093
起码	-14094
车企	-14095
车祸	-14096
进水	-14097
追赶	-14098
追随	-14099
遍及	-14100
配制	-14101
醒来	-14102
针灸	-14103
钢球	-14104
降价	-14105
难过	-14106
预报	-14107
预留	-14108
饭后	-14109
高空	-14110
%),	-14111
GHz	-14112
▁注意	-14113
不了解	-14114
不同意	-14115
中之重	-14116
中小型	-14117
为原料	-14118
主办方	-14119
人性化	-14120
他们是	-14121
作出的	-14122
做好了	-14123
凝聚力	-14124
出具的	-14125
变位机	-14126
可以向	-14127
和业务	-14128
和质量	-14129
在学习	-14130
在现场	-14131
在疫情	-14132
增长率	-14133
容易被	-14134
展览会	-14135
并及时	-14136
广州队	-14137
开启了	-14138
引发了	-14139
当中的	-14140
性疾病	-14141
性问题	-14142
成一个	-14143
推动了	-14144
摄氏度	-14145
支付宝	-14146
最近的	-14147
本科生	-14148
母亲的	-14149
比赛的	-14150
海南省	-14151
用户在	-14152
的办法	-14153
的妻子	-14154
的平均	-14155
的成长	-14156
的特殊	-14157
目标的	-14158
等各类	-14159
等多项	-14160
要进行	-14161
设置了	-14162
部部长	-14163
面上的	-14164
面对面	-14165
高素质	-14166
黄花梨	-14167
mart	-14168
orld	-14169
中国企业	-14170
从而提高	-14171
企业提供	-14172
共同发展	-14173
关键技术	-14174
北京大学	-14175
厨余垃圾	-14176
可以提供	-14177
培养学生	-14178
废气处理	-14179
建立一个	-14180
开发利用	-14181
所使用的	-14182
教育资源	-14183
数据进行	-14184
数据采集	-14185
无罪判决	-14186
是一样的	-14187
玻璃纤维	-14188
电子信息	-14189
维护保养	-14190
自主研发	-14191
节能减排	-14192
营养成分	-14193
资源优势	-14194
进行治疗	-14195
采用的是	-14196
重要意义	-14197
金融科技	-14198
长期以来	-14199
鸦胆子油	-14200
ffice	-14201
下面我们就	-14202
各式各样的	-14203
必不可少的	-14204
组织生活会	-14205
最高人民法院	-14206
,,	-14207
DF	-14208
GA	-14209
pH	-14210
▁又	-14211
▁秦	-14212
上都	-14213
不肯	-14214
中枢	-14215
中途	-14216
之类	-14217
之行	-14218
买房	-14219
争执	-14220
但有	-14221
作好	-14222
假冒	-14223
做完	-14224
停机	-14225
储物	-14226
入户	-14227
全网	-14228
写出	-14229
农资	-14230
冲锋	-14231
出众	-14232
出炉	-14233
切尔	-14234
切的	-14235
刊登	-14236
创伤	-14237
勃勃	-14238
匆匆	-14239
单于	-14240
吉利	-14241
同胞	-14242
后排	-14243
和外	-14244
回流	-14245
在场	-14246
场均	-14247
型式	-14248
城里	-14249
埔寨	-14250
墨水	-14251
多加	-14252
多维	-14253
大厂	-14254
大火	-14255
央企	-14256
头晕	-14257
套利	-14258
好吃	-14259
客家	-14260
家伙	-14261
宽容	-14262
尤文	-14263
岛屿	-14264
左边	-14265
已获	-14266
已达	-14267
平县	-14268
广汽	-14269
应先	-14270
弊端	-14271
往后	-14272
心动	-14273
恐慌	-14274
想去	-14275
房贷	-14276
手套	-14277
执教	-14278
扩容	-14279
批示	-14280
找回	-14281
找寻	-14282
探访	-14283
摩根	-14284
新网	-14285
方舱	-14286
族群	-14287
无误	-14288
晋中	-14289
最长	-14290
本案	-14291
束缚	-14292
枣庄	-14293
楼盘	-14294
概况	-14295
榜首	-14296
毁灭	-14297
海豹	-14298
灌木	-14299
烘焙	-14300
率领	-14301
玩耍	-14302
理疗	-14303
白云	-14304
的金	-14305
相伴	-14306
码链	-14307
研学	-14308
移栽	-14309
繁华	-14310
置身	-14311
老实	-14312
考级	-14313
耦合	-14314
聚力	-14315
肢体	-14316
胶水	-14317
能与	-14318
萌芽	-14319
蜂窝	-14320
西瓜	-14321
说课	-14322
谣言	-14323
贩卖	-14324
超大	-14325
跳跃	-14326
迎战	-14327
还算	-14328
重磅	-14329
钻井	-14330
阿嬷	-14331
露天	-14332
霸气	-14333
页游	-14334
饰品	-14335
ABS	-14336
ode	-14337
▁不要	-14338
▁任何	-14339
▁作者	-14340
▁有些	-14341
▁综上	-14342
。”“	-14343
不均匀	-14344
不少人	-14345
不能够	-14346
为确保	-14347
亚洲杯	-14348
但现在	-14349
关键的	-14350
分钟内	-14351
前面的	-14352
只要有	-14353
后市场	-14354
吴茱萸	-14355
喜马拉	-14356
在国家	-14357
大家庭	-14358
大连人	-14359
季后赛	-14360
室内的	-14361
对环境	-14362
干什么	-14363
建设中	-14364
很快就	-14365
惊人的	-14366
或服务	-14367
打造成	-14368
排名第	-14369
收视率	-14370
新东方	-14371
新项目	-14372
日开始	-14373
是采用	-14374
暨普查	-14375
最初的	-14376
条款及	-14377
活力的	-14378
滤波器	-14379
灵敏度	-14380
球磨机	-14381
理论上	-14382
的人士	-14383
的地区	-14384
的实力	-14385
的高低	-14386
相关性	-14387
碳纤维	-14388
红色的	-14389
经营的	-14390
色彩的	-14391
说什么	-14392
软件的	-14393
还不错	-14394
陌生的	-14395
项目中	-14396
三分之一	-14397
以下几点	-14398
先河环保	-14399
党的领导	-14400
各种各样	-14401
喜马拉雅	-14402
因地制宜	-14403
城乡建设	-14404
多特蒙德	-14405
大力推进	-14406
如何处理	-14407
宏观经济	-14408
对我们的	-14409
工业设计	-14410
工作原理	-14411
工程设计	-14412
应急处置	-14413
应用领域	-14414
机器学习	-14415
沟通交流	-14416
法律规定	-14417
特别强调	-14418
生产过程	-14419
相对来说	-14420
相对湿度	-14421
突出问题	-14422
结构简单	-14423
结构紧凑	-14424
联系我们	-14425
课程思政	-14426
车离合器	-14427
需要考虑	-14428
▁与此同时	-14429
优质的产品	-14430
新发展格局	-14431
油水分离器	-14432
统计暨普查	-14433
Galaxy	-14434
在使用过程中	-14435
离子交换树脂	-14436
习近平总书记关于	-14437
LT	-14438
MO	-14439
NH	-14440
▁文	-14441
一连	-14442
上次	-14443
两边	-14444
两队	-14445
丰胸	-14446
主编	-14447
乙方	-14448
五千	-14449
亲情	-14450
你去	-14451
侵略	-14452
保育	-14453
兑现	-14454
党内	-14455
其所	-14456
减税	-14457
函授	-14458
刚度	-14459
刷卡	-14460
募集	-14461
卡通	-14462
卧式	-14463
历时	-14464
原生	-14465
取证	-14466
变色	-14467
同年	-14468
名师	-14469
听众	-14470
喷淋	-14471
因缘	-14472
国王	-14473
圆柱	-14474
在被	-14475
城西	-14476
基材	-14477
多点	-14478
头疼	-14479
奔驰	-14480
妇联	-14481
孔子	-14482
官兵	-14483
寻常	-14484
尔的	-14485
峡谷	-14486
巨额	-14487
干警	-14488
建的	-14489
开头	-14490
彩砂	-14491
影音	-14492
意为	-14493
折射	-14494
改动	-14495
政权	-14496
散文	-14497
日生	-14498
本钱	-14499
极度	-14500
洛杉	-14501
消泡	-14502
液的	-14503
深远	-14504
滨海	-14505
瀑布	-14506
焊管	-14507
熊猫	-14508
燕窝	-14509
特的	-14510
王国	-14511
理智	-14512
申诉	-14513
的正	-14514
盘点	-14515
称赞	-14516
端正	-14517
线和	-14518
组分	-14519
背面	-14520
能将	-14521
自立	-14522
色斑	-14523
草坪	-14524
荔枝	-14525
装潢	-14526
观望	-14527
证人	-14528
词典	-14529
词性	-14530
赌博	-14531
赞美	-14532
走入	-14533
起初	-14534
较轻	-14535
还款	-14536
追捧	-14537
部和	-14538
采矿	-14539
链路	-14540
门市	-14541
防灾	-14542
阳县	-14543
阴谋	-14544
陈列	-14545
靶向	-14546
预言	-14547
颇有	-14548
马斯	-14549
黄豆	-14550
▁当时	-14551
▁总之	-14552
▁所谓	-14553
▁系统	-14554
不间断	-14555
也应该	-14556
也许是	-14557
今后的	-14558
他们将	-14559
会引起	-14560
你就会	-14561
几十年	-14562
出发点	-14563
加强与	-14564
反映出	-14565
只能在	-14566
可使用	-14567
周围的	-14568
和其它	-14569
和方法	-14570
品质的	-14571
国际上	-14572
在城市	-14573
塞罗那	-14574
大家在	-14575
学习了	-14576
实施的	-14577
岩棉板	-14578
帮助您	-14579
并获得	-14580
总工会	-14581
总结了	-14582
慢慢的	-14583
成交量	-14584
手术后	-14585
执行力	-14586
推荐的	-14587
是十分	-14588
杭州市	-14589
柬埔寨	-14590
污染源	-14591
深厚的	-14592
烘干机	-14593
现如今	-14594
的几率	-14595
的局面	-14596
的气氛	-14597
社会化	-14598
结构化	-14599
让客户	-14600
记忆力	-14601
货物的	-14602
车子的	-14603
零件的	-14604
▁...	-14605
▁接下来	-14606
一句名言	-14607
专家学者	-14608
世界卫生	-14609
中国女足	-14610
交易中心	-14611
产品设计	-14612
全文阅读	-14613
公职人员	-14614
具有一定	-14615
创新驱动	-14616
实地考察	-14617
密切关注	-14618
工业园区	-14619
形成一个	-14620
房屋征收	-14621
每一个人	-14622
气候变化	-14623
积极配合	-14624
税务总局	-14625
管理规定	-14626
绿色矿山	-14627
荣誉称号	-14628
行政许可	-14629
金融市场	-14630
长时间的	-14631
具有较高的	-14632
发展改革委	-14633
变得越来越	-14634
在不经意间	-14635
大家都知道	-14636
少林寺武术	-14637
疫情防控和	-14638
时事政治热点	-14639
职业技术学院	-14640
人力资源和社会保障	-14641
?;	-14642
FE	-14643
KV	-14644
TS	-14645
ft	-14646
▁下	-14647
▁女	-14648
一到	-14649
三亚	-14650
两款	-14651
中转	-14652
争相	-14653
亲朋	-14654
但仍	-14655
保亭	-14656
催生	-14657
全景	-14658
公元	-14659
公害	-14660
兽药	-14661
再将	-14662
军团	-14663
切忌	-14664
刷牙	-14665
券商	-14666
单击	-14667
单词	-14668
南昌	-14669
卫健	-14670
印章	-14671
发霉	-14672
受让	-14673
口头	-14674
可乐	-14675
名思	-14676
启闭	-14677
四方	-14678
回想	-14679
地把	-14680
如是	-14681
妥协	-14682
孙权	-14683
定额	-14684
宣言	-14685
对了	-14686
对立	-14687
尔本	-14688
崇尚	-14689
巡回	-14690
巨星	-14691
巴基	-14692
布袋	-14693
带走	-14694
并列	-14695
张晓	-14696
憧憬	-14697
所指	-14698
拖延	-14699
拖欠	-14700
拼接	-14701
撕裂	-14702
无损	-14703
晚餐	-14704
景气	-14705
曝气	-14706
橄榄	-14707
此举	-14708
此种	-14709
残余	-14710
气势	-14711
没了	-14712
涉外	-14713
涨停	-14714
混动	-14715
清热	-14716
溶性	-14717
烟火	-14718
热潮	-14719
特区	-14720
特拉	-14721
特长	-14722
王某	-14723
画册	-14724
的酒	-14725
磁性	-14726
福田	-14727
突击	-14728
立马	-14729
答辩	-14730
米勒	-14731
结尾	-14732
缤纷	-14733
羊毛	-14734
羽毛	-14735
而下	-14736
耳机	-14737
聚苯	-14738
胜任	-14739
蟋蟀	-14740
表决	-14741
质检	-14742
贵重	-14743
路人	-14744
车队	-14745
面条	-14746
面膜	-14747
频频	-14748
BMW	-14749
ETC	-14750
ire	-14751
▁Co	-14752
▁mm	-14753
▁腾讯	-14754
▁要求	-14755
▁需要	-14756
不停地	-14757
不建议	-14758
为国家	-14759
主体的	-14760
代表性	-14761
企业对	-14762
会有所	-14763
其次是	-14764
创业的	-14765
到底是	-14766
制作人	-14767
动物园	-14768
发现有	-14769
变速箱	-14770
可能在	-14771
吃什么	-14772
同样是	-14773
固定在	-14774
在其他	-14775
塑料袋	-14776
小孩子	-14777
市场对	-14778
当然是	-14779
把这个	-14780
接受的	-14781
政府和	-14782
整理了	-14783
新鲜的	-14784
时尚的	-14785
时间段	-14786
洛杉矶	-14787
海内外	-14788
清楚地	-14789
珠三角	-14790
由国家	-14791
癌细胞	-14792
的两个	-14793
的产业	-14794
的真实	-14795
的色彩	-14796
第二届	-14797
编织袋	-14798
网易云	-14799
耐火砖	-14800
认可的	-14801
适量的	-14802
问题是	-14803
load	-14804
▁习近平	-14805
▁本网站	-14806
主营业务	-14807
你会发现	-14808
使我们的	-14809
党组成员	-14810
可以有效	-14811
在生活中	-14812
塑料制品	-14813
就是因为	-14814
工作压力	-14815
成人高考	-14816
投资基金	-14817
改革发展	-14818
春节期间	-14819
有良好的	-14820
水产养殖	-14821
消费需求	-14822
现实世界	-14823
理想信念	-14824
的环境中	-14825
绿色低碳	-14826
能够满足	-14827
购物中心	-14828
资本主义	-14829
这场比赛	-14830
这方面的	-14831
产品和服务	-14832
党的十九届	-14833
的重要因素	-14834
说过这样一句名言	-14835
!!	-14836
)“	-14837
DE	-14838
OL	-14839
Sp	-14840
UI	-14841
UN	-14842
ji	-14843
▁内	-14844
▁十	-14845
三峡	-14846
与他	-14847
主线	-14848
主页	-14849
也已	-14850
乡亲	-14851
了然	-14852
人选	-14853
他想	-14854
伸出	-14855
低头	-14856
低迷	-14857
何处	-14858
偏离	-14859
光芒	-14860
全站	-14861
全线	-14862
关卡	-14863
关口	-14864
几位	-14865
几千	-14866
凸轮	-14867
出不	-14868
出路	-14869
别离	-14870
前辈	-14871
功课	-14872
动荡	-14873
单品	-14874
占了	-14875
卡片	-14876
卵子	-14877
厌氧	-14878
台大	-14879
同修	-14880
周三	-14881
土豆	-14882
在她	-14883
在最	-14884
基数	-14885
士气	-14886
备战	-14887
外媒	-14888
外语	-14889
大唐	-14890
大腿	-14891
大都	-14892
失眠	-14893
失调	-14894
守望	-14895
安宁	-14896
安市	-14897
宫腔	-14898
小草	-14899
屁股	-14900
岛的	-14901
巴萨	-14902
平平	-14903
应以	-14904
应是	-14905
引资	-14906
弥漫	-14907
微微	-14908
微机	-14909
怀念	-14910
愈发	-14911
成药	-14912
房企	-14913
把关	-14914
拟定	-14915
捍卫	-14916
教程	-14917
文凭	-14918
暴跌	-14919
期满	-14920
标本	-14921
森纳	-14922
殊荣	-14923
求精	-14924
波形	-14925
海域	-14926
海尔	-14927
清风	-14928
溯源	-14929
爵仕	-14930
犬的	-14931
环卫	-14932
的我	-14933
看作	-14934
社长	-14935
穿梭	-14936
笼罩	-14937
简报	-14938
粗粮	-14939
终结	-14940
绝望	-14941
老龄	-14942
而为	-14943
联谊	-14944
花瓣	-14945
花粉	-14946
表处	-14947
衬套	-14948
观摩	-14949
设法	-14950
诚挚	-14951
说我	-14952
说着	-14953
踏入	-14954
轴向	-14955
过关	-14956
这笔	-14957
这让	-14958
邯郸	-14959
配以	-14960
重塑	-14961
重整	-14962
钻头	-14963
镜面	-14964
长辈	-14965
闻名	-14966
阶层	-14967
青云	-14968
顺丰	-14969
顺便	-14970
高点	-14971
And	-14972
PDF	-14973
ame	-14974
ana	-14975
ith	-14976
▁Sc	-14977
▁一些	-14978
▁只要	-14979
▁故事	-14980
▁新华	-14981
▁解释	-14982
▁青岛	-14983
一点点	-14984
上一个	-14985
上市的	-14986
不包括	-14987
不多的	-14988
不道德	-14989
与环境	-14990
中国家	-14991
二零一	-14992
于一体	-14993
云平台	-14994
仍处于	-14995
从业者	-14996
价值和	-14997
住宿费	-14998
保健品	-14999
其它的	-15000
出生的	-15001
半年的	-15002
占据了	-15003
反应器	-15004
可谓是	-15005
同时还	-15006
名思义	-15007
和处理	-15008
和孩子	-15009
和家长	-15010
和相关	-15011
在安装	-15012
埃里卡	-15013
小组赛	-15014
工业园	-15015
建立的	-15016
我个人	-15017
或使用	-15018
是否会	-15019
每一天	-15020
每天都	-15021
流行病	-15022
然后用	-15023
版本的	-15024
玩游戏	-15025
玻尿酸	-15026
白色的	-15027
的人力	-15028
的时刻	-15029
的爱情	-15030
的物品	-15031
的特征	-15032
的视频	-15033
离退休	-15034
等其他	-15035
维护和	-15036
联系人	-15037
艺术的	-15038
获得感	-15039
葡萄牙	-15040
认真的	-15041
设计及	-15042
责任心	-15043
车爵仕	-15044
软硬件	-15045
进入到	-15046
都可能	-15047
重要性	-15048
页面的	-15049
Mate	-15050
http	-15051
roid	-15052
为核心的	-15053
内容包括	-15054
分享一下	-15055
另外一个	-15056
可以获得	-15057
安装方便	-15058
巴基斯坦	-15059
形式主义	-15060
持续推进	-15061
政策措施	-15062
数据安全	-15063
新闻记者	-15064
有自己的	-15065
电力系统	-15066
的最重要	-15067
科技企业	-15068
统筹推进	-15069
职业学校	-15070
自主创新	-15071
行政管理	-15072
计量器具	-15073
让消费者	-15074
这样的话	-15075
这样说过	-15076
违法违规	-15077
都是非常	-15078
采购项目	-15079
页岩陶粒	-15080
顾名思义	-15081
ystem	-15082
产业的发展	-15083
全生命周期	-15084
曾经提到过	-15085
的方式进行	-15086
中国人民银行	-15087
在一定程度上	-15088
在这种情况下	-15089
采购代理机构	-15090
集团股份有限公司	-15091
ML	-15092
▁y	-15093
一格	-15094
一笔	-15095
一顿	-15096
万多	-15097
三月	-15098
三类	-15099
上山	-15100
不符	-15101
也更	-15102
事前	-15103
交汇	-15104
交警	-15105
代的	-15106
伴有	-15107
但因	-15108
侵入	-15109
保级	-15110
充沛	-15111
公约	-15112
内有	-15113
农家	-15114
凉如	-15115
几家	-15116
分之	-15117
列举	-15118
力气	-15119
单单	-15120
卡拉	-15121
又名	-15122
反响	-15123
受力	-15124
只剩	-15125
可对	-15126
名录	-15127
后勤	-15128
哌齐	-15129
喷射	-15130
国富	-15131
国标	-15132
在乎	-15133
复原	-15134
多奈	-15135
大片	-15136
太原	-15137
奇骏	-15138
威廉	-15139
娃娃	-15140
学区	-15141
安居	-15142
宝石	-15143
室的	-15144
容忍	-15145
少吃	-15146
尔街	-15147
尼基	-15148
左手	-15149
差价	-15150
师父	-15151
延缓	-15152
张贴	-15153
战机	-15154
批次	-15155
折磨	-15156
护林	-15157
拿起	-15158
按键	-15159
推拿	-15160
搞笑	-15161
断路	-15162
无偿	-15163
时时	-15164
是集	-15165
暂行	-15166
曼谷	-15167
格雷	-15168
案的	-15169
横跨	-15170
欠缺	-15171
每当	-15172
毗邻	-15173
民意	-15174
氨酸	-15175
沃尔	-15176
浮动	-15177
演变	-15178
灯的	-15179
烹调	-15180
照亮	-15181
父子	-15182
玩笑	-15183
珍藏	-15184
珐琅	-15185
理会	-15186
电位	-15187
番茄	-15188
瘙痒	-15189
的你	-15190
的呢	-15191
砥砺	-15192
磨合	-15193
等你	-15194
筹划	-15195
粪便	-15196
精髓	-15197
经久	-15198
网约	-15199
美德	-15200
群组	-15201
考古	-15202
脑海	-15203
莫名	-15204
计费	-15205
诚意	-15206
贯通	-15207
赞赏	-15208
走去	-15209
越小	-15210
跟他	-15211
较慢	-15212
远大	-15213
迟迟	-15214
通车	-15215
里有	-15216
重温	-15217
门外	-15218
门将	-15219
门禁	-15220
闪烁	-15221
防冻	-15222
防滑	-15223
防盗	-15224
阻隔	-15225
降级	-15226
难受	-15227
霆锋	-15228
预售	-15229
饼干	-15230
首饰	-15231
NBA	-15232
PPP	-15233
lex	-15234
▁他说	-15235
▁具体	-15236
▁天津	-15237
▁山煤	-15238
▁透过	-15239
一起去	-15240
上赛季	-15241
中获得	-15242
主办的	-15243
也希望	-15244
也是很	-15245
也随之	-15246
会自动	-15247
会计师	-15248
保持了	-15249
几年前	-15250
双方的	-15251
受害者	-15252
可解释	-15253
在一定	-15254
在他的	-15255
大家对	-15256
大理石	-15257
实施了	-15258
就会有	-15259
岁以上	-15260
工作组	-15261
并结合	-15262
应用到	-15263
我们能	-15264
把我们	-15265
持续的	-15266
挥发性	-15267
新型的	-15268
更多地	-15269
检测器	-15270
模式下	-15271
率达到	-15272
珍珠岩	-15273
由于其	-15274
的个人	-15275
的人都	-15276
的反应	-15277
的心理	-15278
的情感	-15279
的最后	-15280
眼前的	-15281
简单地	-15282
类产品	-15283
继电器	-15284
自由的	-15285
舞台上	-15286
让人们	-15287
课堂上	-15288
路由器	-15289
这些都	-15290
集装袋	-15291
额外的	-15292
首先是	-15293
quot	-15294
中心主任	-15295
但是对于	-15296
可能需要	-15297
国际标准	-15298
基本情况	-15299
多奈哌齐	-15300
始终保持	-15301
市场价格	-15302
应用范围	-15303
报废汽车	-15304
挽回爱情	-15305
整改措施	-15306
是否符合	-15307
正常使用	-15308
水利工程	-15309
班子成员	-15310
目标任务	-15311
科研机构	-15312
科研院所	-15313
结构设计	-15314
综服企业	-15315
航空航天	-15316
虚拟现实	-15317
质量问题	-15318
迅速发展	-15319
这个过程	-15320
进行检查	-15321
违法失信	-15322
都是一个	-15323
都有哪些	-15324
采取措施	-15325
重点领域	-15326
销售市场	-15327
农业农村部	-15328
大大提高了	-15329
的工作原理	-15330
进行了深入	-15331
在不经意间这样说过	-15332
CL	-15333
IG	-15334
Si	-15335
bi	-15336
ru	-15337
▁何	-15338
▁并	-15339
▁电	-15340
▁美	-15341
一所	-15342
上车	-15343
且在	-15344
两只	-15345
两手	-15346
为宜	-15347
主业	-15348
习俗	-15349
交接	-15350
交锋	-15351
人意	-15352
人或	-15353
众筹	-15354
但要	-15355
保驾	-15356
先将	-15357
全心	-15358
其间	-15359
内膜	-15360
决战	-15361
净值	-15362
划伤	-15363
剧团	-15364
助剂	-15365
十万	-15366
参保	-15367
双面	-15368
受限	-15369
号的	-15370
吊车	-15371
名校	-15372
吸水	-15373
哲理	-15374
商人	-15375
团长	-15376
图为	-15377
地表	-15378
复审	-15379
外婆	-15380
奥兰	-15381
学史	-15382
宝玉	-15383
实证	-15384
射频	-15385
尿道	-15386
居多	-15387
崇拜	-15388
帽子	-15389
干脆	-15390
年末	-15391
开市	-15392
征税	-15393
很差	-15394
忙着	-15395
悲剧	-15396
我从	-15397
承重	-15398
据点	-15399
文体	-15400
是好	-15401
晶体	-15402
有为	-15403
有待	-15404
来袭	-15405
核验	-15406
水土	-15407
沿途	-15408
深知	-15409
点多	-15410
炼厂	-15411
生于	-15412
略有	-15413
盆栽	-15414
碳钢	-15415
祝你	-15416
福德	-15417
离校	-15418
经受	-15419
肾脏	-15420
肿胀	-15421
能用	-15422
自营	-15423
茅台	-15424
荷载	-15425
譬如	-15426
详尽	-15427
调停	-15428
财力	-15429
贵族	-15430
赞誉	-15431
过剩	-15432
近百	-15433
还真	-15434
远东	-15435
郁闷	-15436
配音	-15437
隐蔽	-15438
难的	-15439
须在	-15440
风云	-15441
风电	-15442
骨头	-15443
IoT	-15444
ams	-15445
gov	-15446
ics	-15447
ign	-15448
old	-15449
▁in	-15450
▁服务	-15451
▁美元	-15452
万欧元	-15453
下面是	-15454
与应用	-15455
中国和	-15456
中科院	-15457
乒乓球	-15458
也十分	-15459
也有人	-15460
也正是	-15461
事物的	-15462
以至于	-15463
但没有	-15464
你是否	-15465
使用权	-15466
关键是	-15467
准备了	-15468
包括了	-15469
双一流	-15470
发挥着	-15471
可以与	-15472
和个人	-15473
因为有	-15474
地方的	-15475
夹层锅	-15476
安装了	-15477
对这个	-15478
就好像	-15479
工商户	-15480
工程学	-15481
开发了	-15482
总公司	-15483
慎重的	-15484
才会有	-15485
支持的	-15486
方法是	-15487
是这个	-15488
有一位	-15489
有意思	-15490
案件的	-15491
比较低	-15492
物料的	-15493
的一般	-15494
的事物	-15495
的儿子	-15496
的感情	-15497
的生态	-15498
的经历	-15499
的资源	-15500
着一个	-15501
等众多	-15502
约定的	-15503
经济和	-15504
自我的	-15505
蔡英文	-15506
设备上	-15507
证明了	-15508
请及时	-15509
调整为	-15510
贸易战	-15511
还存在	-15512
透明度	-15513
都是有	-15514
钢笔字	-15515
ment	-15516
ress	-15517
中国国际	-15518
为什么会	-15519
为消费者	-15520
主要分为	-15521
亿人民币	-15522
佩戴口罩	-15523
做的事情	-15524
公司产品	-15525
公平竞争	-15526
可以作为	-15527
在互联网	-15528
少数民族	-15529
总体目标	-15530
数位转型	-15531
星级酒店	-15532
是否需要	-15533
森林城市	-15534
注册资金	-15535
现代农业	-15536
生活垃圾	-15537
相关人员	-15538
研究机构	-15539
紧密结合	-15540
纪检监察	-15541
结果表明	-15542
能力建设	-15543
表面处理	-15544
还有什么	-15545
部分地区	-15546
随时随地	-15547
隐私政策	-15548
一直致力于	-15549
专业委员会	-15550
到目前为止	-15551
根据自己的	-15552
笔记本电脑	-15553
专业技术人员	-15554
污水处理设备	-15555
钢结构防火涂料	-15556
:【	-15557
Pa	-15558
uc	-15559
yd	-15560
。‘	-15561
万股	-15562
与新	-15563
专长	-15564
中对	-15565
丰收	-15566
主干	-15567
乏力	-15568
了呢	-15569
他将	-15570
代购	-15571
以待	-15572
会社	-15573
但她	-15574
位数	-15575
住户	-15576
体能	-15577
你将	-15578
保荐	-15579
党校	-15580
共生	-15581
内衣	-15582
冰城	-15583
出境	-15584
出征	-15585
分区	-15586
分发	-15587
分组	-15588
划算	-15589
包罗	-15590
升学	-15591
卖给	-15592
县市	-15593
召集	-15594
呵呵	-15595
品格	-15596
商事	-15597
固态	-15598
在车	-15599
备考	-15600
复古	-15601
夕阳	-15602
外加	-15603
大乘	-15604
好吗	-15605
媳妇	-15606
存的	-15607
它将	-15608
容许	-15609
富硒	-15610
对决	-15611
导轨	-15612
屏风	-15613
带队	-15614
庆典	-15615
应收	-15616
延期	-15617
征服	-15618
得更	-15619
循序	-15620
心想	-15621
总支	-15622
息息	-15623
感触	-15624
慈悲	-15625
才行	-15626
护罩	-15627
拒不	-15628
指甲	-15629
据说	-15630
放进	-15631
新竹	-15632
方矩	-15633
是小	-15634
晓东	-15635
有条	-15636
期末	-15637
本场	-15638
本报	-15639
本级	-15640
村落	-15641
桃花	-15642
每种	-15643
比的	-15644
流式	-15645
滚筒	-15646
然的	-15647
爆款	-15648
玛丽	-15649
留住	-15650
疑虑	-15651
病患	-15652
的去	-15653
的马	-15654
相邻	-15655
看不	-15656
眼看	-15657
祝您	-15658
秘诀	-15659
称呼	-15660
移除	-15661
箱内	-15662
粘连	-15663
精良	-15664
紧跟	-15665
红茶	-15666
纯洁	-15667
纲要	-15668
纵向	-15669
耐蚀	-15670
能把	-15671
致癌	-15672
菩提	-15673
虚弱	-15674
要先	-15675
让其	-15676
证的	-15677
该校	-15678
调和	-15679
谐波	-15680
豫满	-15681
走路	-15682
起源	-15683
跑道	-15684
跳绳	-15685
达克	-15686
达尔	-15687
过头	-15688
过期	-15689
返乡	-15690
返还	-15691
这只	-15692
这台	-15693
这支	-15694
违章	-15695
连胜	-15696
送货	-15697
遗体	-15698
遮阳	-15699
重回	-15700
长者	-15701
间歇	-15702
降幅	-15703
雪花	-15704
霉素	-15705
非标	-15706
顾虑	-15707
香菇	-15708
骨折	-15709
高分	-15710
鸟儿	-15711
AND	-15712
CAD	-15713
CSR	-15714
TDK	-15715
URL	-15716
led	-15717
▁基于	-15718
▁学校	-15719
▁成都	-15720
一小时	-15721
万人次	-15722
上班族	-15723
不小的	-15724
不足以	-15725
个国家	-15726
为保证	-15727
二等奖	-15728
从源头	-15729
他们都	-15730
他强调	-15731
以太坊	-15732
以此来	-15733
仲裁庭	-15734
优美的	-15735
会议由	-15736
体会到	-15737
保温管	-15738
全流程	-15739
农民工	-15740
冷却水	-15741
分钟的	-15742
制度和	-15743
北交所	-15744
去年的	-15745
发展新	-15746
发行的	-15747
各环节	-15748
向上的	-15749
听起来	-15750
和投资	-15751
和环境	-15752
商品房	-15753
基础的	-15754
墨尔本	-15755
大功率	-15756
好不好	-15757
娱乐圈	-15758
学会了	-15759
工作台	-15760
并讲话	-15761
开始在	-15762
开设了	-15763
成就感	-15764
我真的	-15765
技术在	-15766
技术性	-15767
抵抗力	-15768
改善了	-15769
早期的	-15770
是他们	-15771
本单位	-15772
植物园	-15773
比上年	-15774
比其他	-15775
氧化铝	-15776
氯乙烯	-15777
测定仪	-15778
现在是	-15779
的制作	-15780
的加工	-15781
盘扣式	-15782
第一名	-15783
第三代	-15784
经过了	-15785
要认真	-15786
让你的	-15787
运而生	-15788
这一年	-15789
进程中	-15790
那样的	-15791
阻燃剂	-15792
需提供	-15793
香港的	-15794
高层次	-15795
▁and	-15796
▁很多人	-15797
▁我公司	-15798
▁挤塑板	-15799
▁深圳市	-15800
中超联赛	-15801
主持会议	-15802
主要从事	-15803
也可以在	-15804
也是如此	-15805
以人为本	-15806
保护装置	-15807
保驾护航	-15808
前列腺炎	-15809
加工设备	-15810
在工作中	-15811
在这方面	-15812
大部分的	-15813
家用电器	-15814
广大用户	-15815
应聘人员	-15816
投标单位	-15817
报名参加	-15818
接种疫苗	-15819
方向发展	-15820
无人驾驶	-15821
是怎样的	-15822
有色金属	-15823
本身就是	-15824
比较容易	-15825
深入贯彻	-15826
牢记使命	-15827
百年奋斗	-15828
目前正在	-15829
相当大的	-15830
精益求精	-15831
经营理念	-15832
经验丰富	-15833
能够实现	-15834
计划生育	-15835
资源配置	-15836
还有就是	-15837
防控措施	-15838
风险管理	-15839
我们的生活	-15840
提供了一个	-15841
知识产权局	-15842
都有自己的	-15843
▁Snapchat	-15844
GC	-15845
Qu	-15846
SK	-15847
TI	-15848
Ti	-15849
Un	-15850
▁佛	-15851
▁德	-15852
▁许	-15853
一二	-15854
一楼	-15855
不曾	-15856
不畅	-15857
中欧	-15858
为首	-15859
也从	-15860
也叫	-15861
产销	-15862
人脸	-15863
仇恨	-15864
从头	-15865
他从	-15866
休假	-15867
伙儿	-15868
伸缩	-15869
作弊	-15870
例会	-15871
促成	-15872
保质	-15873
儿科	-15874
公募	-15875
公车	-15876
关乎	-15877
准时	-15878
凝胶	-15879
击战	-15880
分销	-15881
划定	-15882
则有	-15883
创投	-15884
前述	-15885
化石	-15886
北约	-15887
午餐	-15888
半月	-15889
卖点	-15890
原著	-15891
口语	-15892
召唤	-15893
合影	-15894
均已	-15895
坚果	-15896
埃尔	-15897
堡垒	-15898
增持	-15899
增高	-15900
壁垒	-15901
大通	-15902
太极	-15903
奋发	-15904
委屈	-15905
实话	-15906
导游	-15907
导线	-15908
少许	-15909
希尔	-15910
并使	-15911
征地	-15912
微观	-15913
总重	-15914
惯性	-15915
所要	-15916
执著	-15917
扩建	-15918
批判	-15919
拇指	-15920
拥堵	-15921
掉的	-15922
掉落	-15923
接轨	-15924
提速	-15925
搞好	-15926
收紧	-15927
放映	-15928
无从	-15929
旺季	-15930
易爆	-15931
春夏	-15932
春秋	-15933
晚年	-15934
暧昧	-15935
服药	-15936
本校	-15937
树种	-15938
格里	-15939
楼市	-15940
毫升	-15941
永生	-15942
油和	-15943
油污	-15944
浑身	-15945
海量	-15946
涅槃	-15947
淀粉	-15948
淋漓	-15949
潜能	-15950
版纳	-15951
狠抓	-15952
王朝	-15953
电费	-15954
白宫	-15955
百强	-15956
盯着	-15957
直觉	-15958
相容	-15959
瞩目	-15960
磨床	-15961
礼拜	-15962
空的	-15963
穿戴	-15964
签下	-15965
紧缺	-15966
繁琐	-15967
纸币	-15968
终极	-15969
结对	-15970
老伴	-15971
而行	-15972
耐力	-15973
肺癌	-15974
腐烂	-15975
艾尔	-15976
节的	-15977
药厂	-15978
药材	-15979
莲花	-15980
虽有	-15981
血脉	-15982
西宁	-15983
询价	-15984
赞扬	-15985
踊跃	-15986
轮回	-15987
轮的	-15988
运费	-15989
连连	-15990
送至	-15991
里头	-15992
金斯	-15993
隔绝	-15994
鞭炮	-15995
首日	-15996
驳回	-15997
高涨	-15998
鲜艳	-15999
鸟类	-16000
齐聚	-16001
COD	-16002
DIY	-16003
bps	-16004
ear	-16005
eng	-16006
lor	-16007
red	-16008
und	-16009
▁广州	-16010
▁想要	-16011
▁本周	-16012
▁来自	-16013
▁每个	-16014
▁韩国	-16015
一个好	-16016
一切都	-16017
不得已	-16018
不过是	-16019
个月的	-16020
乘用车	-16021
也只能	-16022
也存在	-16023
也逐渐	-16024
交流和	-16025
低收入	-16026
依法治	-16027
停下来	-16028
养老金	-16029
可以有	-16030
可有效	-16031
合同的	-16032
向记者	-16033
和各种	-16034
国庆节	-16035
在世界	-16036
垃圾箱	-16037
复合型	-16038
实在是	-16039
对这些	-16040
就知道	-16041
希望在	-16042
并将其	-16043
微信群	-16044
慢慢地	-16045
或任何	-16046
执行长	-16047
护肤品	-16048
效果的	-16049
整个人	-16050
文件夹	-16051
方法来	-16052
施工中	-16053
时间是	-16054
是怎样	-16055
源代码	-16056
现实中	-16057
理解的	-16058
生物质	-16059
用什么	-16060
的一家	-16061
的中心	-16062
的体验	-16063
的报告	-16064
的热爱	-16065
的科学	-16066
的运行	-16067
的高端	-16068
的高级	-16069
直播间	-16070
第一家	-16071
签订了	-16072
紧接着	-16073
给排水	-16074
耶和华	-16075
自信心	-16076
要按照	-16077
认识的	-16078
设立了	-16079
设计上	-16080
赛金花	-16081
这个词	-16082
这部剧	-16083
长期的	-16084
Java	-16085
▁原标题	-16086
▁新加坡	-16087
一个问题	-16088
专项整治	-16089
两个孩子	-16090
严格控制	-16091
也有很多	-16092
伟大复兴	-16093
作为一名	-16094
你自己的	-16095
做出贡献	-16096
国内市场	-16097
在一起的	-16098
在市场上	-16099
多元化的	-16100
帮助他们	-16101
强有力的	-16102
必不可少	-16103
我们还要	-16104
手术治疗	-16105
操作方便	-16106
更多的人	-16107
最好不要	-16108
标准体系	-16109
正式成立	-16110
消费市场	-16111
温室大棚	-16112
的高质量	-16113
目前已经	-16114
考试成绩	-16115
胶原蛋白	-16116
自动控制	-16117
详细介绍	-16118
质量控制	-16119
违法犯罪	-16120
追求卓越	-16121
个体工商户	-16122
如下图所示	-16123
小编为大家	-16124
正常情况下	-16125
街道办事处	-16126
装配式建筑	-16127
深入学习贯彻	-16128
社会主义现代化	-16129
De	-16130
Na	-16131
ei	-16132
▁做	-16133
▁圣	-16134
▁朱	-16135
▁转	-16136
一刻	-16137
一目	-16138
万名	-16139
三支	-16140
专有	-16141
中风	-16142
之于	-16143
之城	-16144
之火	-16145
乳胶	-16146
你还	-16147
公信	-16148
六月	-16149
凝固	-16150
刚玉	-16151
动向	-16152
午后	-16153
半天	-16154
原地	-16155
友人	-16156
双边	-16157
变现	-16158
可怜	-16159
可由	-16160
吃喝	-16161
同业	-16162
周刊	-16163
呼应	-16164
和各	-16165
唐代	-16166
土司	-16167
增发	-16168
声响	-16169
壳体	-16170
处境	-16171
多是	-16172
大全	-16173
大山	-16174
大麻	-16175
女主	-16176
她就	-16177
富豪	-16178
寿险	-16179
封堵	-16180
小品	-16181
小子	-16182
小屋	-16183
就得	-16184
山林	-16185
岩石	-16186
崩溃	-16187
布拉	-16188
带货	-16189
年被	-16190
庆幸	-16191
异型	-16192
录入	-16193
房租	-16194
打压	-16195
抉择	-16196
抓获	-16197
招收	-16198
排卵	-16199
施乐	-16200
无菌	-16201
显着	-16202
替补	-16203
月起	-16204
有其	-16205
梅西	-16206
求是	-16207
没错	-16208
沦落	-16209
洗脑	-16210
流浪	-16211
海口	-16212
温水	-16213
湖区	-16214
澄清	-16215
炒锅	-16216
热心	-16217
瓶装	-16218
电容	-16219
电瓶	-16220
病害	-16221
登入	-16222
盛大	-16223
秋天	-16224
稳中	-16225
粘性	-16226
累了	-16227
纸上	-16228
绝不	-16229
缔造	-16230
腹痛	-16231
自称	-16232
药师	-16233
血症	-16234
要与	-16235
解毒	-16236
警员	-16237
诵经	-16238
赛场	-16239
趁着	-16240
超前	-16241
超音	-16242
身穿	-16243
配比	-16244
酷儿	-16245
重现	-16246
钝化	-16247
镜子	-16248
阿含	-16249
降落	-16250
除锈	-16251
隔断	-16252
黄杨	-16253
)、《	-16254
://	-16255
Shi	-16256
oll	-16257
out	-16258
que	-16259
”。“	-16260
▁参加	-16261
▁可是	-16262
▁电子	-16263
▁第九	-16264
不仅有	-16265
不会对	-16266
不会被	-16267
与美国	-16268
专业性	-16269
专家组	-16270
丰富了	-16271
为全球	-16272
为学生	-16273
为宗旨	-16274
也更加	-16275
代言人	-16276
会带来	-16277
会继续	-16278
依然是	-16279
写字楼	-16280
农业部	-16281
创作的	-16282
利益的	-16283
到医院	-16284
前提下	-16285
化妆师	-16286
去思考	-16287
只剩下	-16288
召开的	-16289
各行业	-16290
和产业	-16291
和实践	-16292
回来的	-16293
地板的	-16294
孵化器	-16295
实实在	-16296
少不了	-16297
想要的	-16298
感应器	-16299
我一直	-16300
我自己	-16301
报道称	-16302
放弃了	-16303
新赛季	-16304
日凌晨	-16305
本办法	-16306
杰出的	-16307
武汉市	-16308
波纹管	-16309
温度和	-16310
温暖的	-16311
白皮书	-16312
的外观	-16313
的改变	-16314
的资金	-16315
科学历	-16316
程序的	-16317
第三次	-16318
等单位	-16319
等现象	-16320
细胞的	-16321
给客户	-16322
综合体	-16323
而且是	-16324
艾莉亚	-16325
要强化	-16326
记者从	-16327
谢霆锋	-16328
转换为	-16329
都是由	-16330
面对的	-16331
音乐人	-16332
?!?/	-16333
不可缺少	-16334
世界上最	-16335
义务教育	-16336
也可用于	-16337
互联互通	-16338
亲朋好友	-16339
优质服务	-16340
信息披露	-16341
化学物质	-16342
可以得到	-16343
可以采用	-16344
平方公里	-16345
并不代表	-16346
建设工作	-16347
建设用地	-16348
很多企业	-16349
我们现在	-16350
抗击疫情	-16351
教学质量	-16352
数据处理	-16353
新闻媒体	-16354
有机溶剂	-16355
满足不同	-16356
生产建设	-16357
生产技术	-16358
申报材料	-16359
积极响应	-16360
继续使用	-16361
设备安装	-16362
诱惑侦查	-16363
负面影响	-16364
迄今为止	-16365
进一步的	-16366
青年教师	-16367
高峰论坛	-16368
中全会精神	-16369
塑料包装袋	-16370
法律职业资格	-16371
统计暨普查局	-16372
ational	-16373
下列情形之一的	-16374
Bl	-16375
LA	-16376
OK	-16377
aa	-16378
ea	-16379
fl	-16380
li	-16381
▁长	-16382
一副	-16383
不为	-16384
不俗	-16385
不息	-16386
不死	-16387
不甘	-16388
与我	-16389
两组	-16390
中被	-16391
为数	-16392
乐团	-16393
二百	-16394
人手	-16395
今次	-16396
介于	-16397
仍将	-16398
余年	-16399
作法	-16400
保全	-16401
偏偏	-16402
共振	-16403
写入	-16404
出家	-16405
划痕	-16406
别具	-16407
动工	-16408
单体	-16409
印制	-16410
去过	-16411
变相	-16412
可从	-16413
吃到	-16414
后会	-16415
和睦	-16416
在华	-16417
地里	-16418
基体	-16419
声誉	-16420
复健	-16421
大明	-16422
奋战	-16423
套房	-16424
奢华	-16425
好比	-16426
好运	-16427
如荼	-16428
姊妹	-16429
威士	-16430
威海	-16431
孔径	-16432
完后	-16433
封控	-16434
封锁	-16435
小白	-16436
尘埃	-16437
就地	-16438
屋面	-16439
川菜	-16440
巴克	-16441
布尔	-16442
常说	-16443
庆生	-16444
序幕	-16445
延展	-16446
建站	-16447
开着	-16448
律宾	-16449
思索	-16450
恰好	-16451
悠久	-16452
我家	-16453
所列	-16454
抗原	-16455
抢险	-16456
抵制	-16457
揭露	-16458
攻略	-16459
数次	-16460
文人	-16461
文山	-16462
文身	-16463
日光	-16464
是无	-16465
树枝	-16466
段的	-16467
毛细	-16468
气缸	-16469
油气	-16470
注释	-16471
流的	-16472
淮南	-16473
混血	-16474
游离	-16475
璀璨	-16476
用料	-16477
留校	-16478
疾控	-16479
的她	-16480
皮炎	-16481
相通	-16482
离线	-16483
穿透	-16484
米饭	-16485
精简	-16486
索取	-16487
纸板	-16488
纹身	-16489
绕组	-16490
统战	-16491
维亚	-16492
缩减	-16493
美军	-16494
老牌	-16495
考点	-16496
花莲	-16497
菠菜	-16498
葫芦	-16499
行事	-16500
褐斑	-16501
角钢	-16502
认购	-16503
起床	-16504
跳舞	-16505
过着	-16506
运势	-16507
近代	-16508
这名	-16509
逆变	-16510
选课	-16511
遗失	-16512
遵义	-16513
那位	-16514
阻塞	-16515
静静	-16516
预见	-16517
餐点	-16518
马的	-16519
骗取	-16520
魔鬼	-16521
鳗鱼	-16522
麻雀	-16523
齐心	-16524
EDI	-16525
EPS	-16526
ISA	-16527
rap	-16528
son	-16529
▁)。	-16530
▁全国	-16531
▁坚持	-16532
▁过去	-16533
一家人	-16534
三年的	-16535
上半场	-16536
下水道	-16537
不能再	-16538
与其它	-16539
专用的	-16540
中关村	-16541
了一套	-16542
了传统	-16543
了解决	-16544
产品中	-16545
人群的	-16546
介绍下	-16547
介绍说	-16548
其中有	-16549
再进行	-16550
功能和	-16551
加工的	-16552
参与的	-16553
及周边	-16554
只是一	-16555
可以做	-16556
可获得	-16557
可行性	-16558
呼吸道	-16559
和健康	-16560
因为这	-16561
在当地	-16562
在微博	-16563
在治疗	-16564
处处长	-16565
太多了	-16566
对不起	-16567
就可能	-16568
已开始	-16569
并提出	-16570
应该在	-16571
很明显	-16572
怎么能	-16573
或其它	-16574
技术上	-16575
显而易	-16576
显著的	-16577
曾多次	-16578
月以来	-16579
有一次	-16580
构建了	-16581
构成的	-16582
毕业证	-16583
氧离子	-16584
法治化	-16585
消费品	-16586
消防车	-16587
漫长的	-16588
热门的	-16589
现场的	-16590
百分比	-16591
的关注	-16592
的各项	-16593
的新鲜	-16594
的案件	-16595
的理论	-16596
的电子	-16597
的第二	-16598
相比于	-16599
看一下	-16600
社区的	-16601
第一天	-16602
等国家	-16603
等材料	-16604
级别的	-16605
而不能	-16606
菲律宾	-16607
设备及	-16608
起来了	-16609
路透社	-16610
身边的	-16611
运用的	-16612
透明的	-16613
销售量	-16614
阿森纳	-16615
▁Not	-16616
▁在这个	-16617
不会出现	-16618
不良反应	-16619
严格遵守	-16620
人际关系	-16621
做好准备	-16622
发布公告	-16623
各个环节	-16624
合作协议	-16625
大大提高	-16626
学生学习	-16627
安全风险	-16628
客户服务	-16629
已经有了	-16630
应运而生	-16631
引导学生	-16632
当事人的	-16633
截止时间	-16634
收费标准	-16635
是我们的	-16636
本次活动	-16637
机器视觉	-16638
根据不同	-16639
检测结果	-16640
检测设备	-16641
母乳喂养	-16642
清洁能源	-16643
爸爸妈妈	-16644
真正做到	-16645
积极作用	-16646
管理条例	-16647
解决方法	-16648
豫满全球	-16649
财政资金	-16650
还是非常	-16651
那个时候	-16652
领先地位	-16653
以下的罚款	-16654
党的十九大	-16655
具有较强的	-16656
农业现代化	-16657
网易云音乐	-16658
随着时间的	-16659
白癜风的治疗	-16660
住房公积金贷款	-16661
农村土地总承包	-16662
BC	-16663
EA	-16664
FF	-16665
MC	-16666
ec	-16667
sc	-16668
▁k	-16669
▁老	-16670
一出	-16671
一滴	-16672
七十	-16673
万余	-16674
不限	-16675
与上	-16676
之名	-16677
之星	-16678
九龙	-16679
人脉	-16680
以最	-16681
保费	-16682
偏高	-16683
催促	-16684
免试	-16685
全职	-16686
全长	-16687
六十	-16688
内瑞	-16689
写下	-16690
几率	-16691
凹槽	-16692
到此	-16693
动人	-16694
化身	-16695
半个	-16696
半功	-16697
协定	-16698
危及	-16699
即兴	-16700
压滤	-16701
受热	-16702
可知	-16703
司令	-16704
向北	-16705
君子	-16706
咀嚼	-16707
喝水	-16708
土木	-16709
大涨	-16710
失控	-16711
奖杯	-16712
学佛	-16713
学界	-16714
宽阔	-16715
封层	-16716
小龙	-16717
就跟	-16718
差点	-16719
幕后	-16720
应与	-16721
当他	-16722
往年	-16723
待人	-16724
微粒	-16725
德尔	-16726
忧虑	-16727
您在	-16728
我只	-16729
所见	-16730
打法	-16731
找准	-16732
抽检	-16733
挡风	-16734
挽救	-16735
换代	-16736
推测	-16737
揭晓	-16738
收看	-16739
教你	-16740
敬畏	-16741
旅途	-16742
日夜	-16743
明智	-16744
易受	-16745
晚会	-16746
暴涨	-16747
月在	-16748
本国	-16749
朴实	-16750
杂乱	-16751
极力	-16752
标配	-16753
检举	-16754
每股	-16755
气管	-16756
江区	-16757
江山	-16758
江市	-16759
沿线	-16760
洗扫	-16761
活血	-16762
滋补	-16763
漫长	-16764
灯泡	-16765
烈士	-16766
烟尘	-16767
热搜	-16768
熬夜	-16769
爬虫	-16770
瑕疵	-16771
生姜	-16772
电控	-16773
痛经	-16774
瘦身	-16775
的路	-16776
省会	-16777
砂石	-16778
科幻	-16779
移交	-16780
立德	-16781
粪池	-16782
红枣	-16783
线束	-16784
细细	-16785
结余	-16786
给付	-16787
耗能	-16788
自住	-16789
自查	-16790
节课	-16791
苦恼	-16792
菜肴	-16793
虚空	-16794
衷心	-16795
被测	-16796
评比	-16797
语句	-16798
调制	-16799
财团	-16800
赞成	-16801
超强	-16802
跟上	-16803
轻型	-16804
造船	-16805
酌情	-16806
醒了	-16807
重度	-16808
钢厂	-16809
阻断	-16810
面粉	-16811
领头	-16812
香蕉	-16813
EMC	-16814
ove	-16815
▁Tr	-16816
▁建议	-16817
▁数据	-16818
▁游戏	-16819
三等奖	-16820
不小于	-16821
两方面	-16822
也是在	-16823
也有所	-16824
二十大	-16825
人员和	-16826
他们也	-16827
价格在	-16828
依赖于	-16829
健康码	-16830
全封闭	-16831
具有高	-16832
分布在	-16833
到最后	-16834
千万别	-16835
危机的	-16836
危险品	-16837
反应釜	-16838
发展到	-16839
向大家	-16840
和一些	-16841
国际性	-16842
在外面	-16843
在工业	-16844
在所有	-16845
在英国	-16846
多年前	-16847
女职工	-16848
学院的	-16849
就不要	-16850
就在于	-16851
平均值	-16852
性骚扰	-16853
想象力	-16854
我感觉	-16855
换言之	-16856
支持下	-16857
日活动	-16858
星期六	-16859
更安全	-16860
服务站	-16861
本协议	-16862
沟盖板	-16863
浓厚的	-16864
温度计	-16865
演唱会	-16866
火锅店	-16867
特性的	-16868
用电量	-16869
男性的	-16870
的主力	-16871
的动作	-16872
的增加	-16873
的宣传	-16874
的水平	-16875
的结合	-16876
的调查	-16877
目标和	-16878
瞩目的	-16879
研发和	-16880
第二季	-16881
等不同	-16882
等重大	-16883
系统化	-16884
联合体	-16885
胶粘剂	-16886
自动门	-16887
自然而	-16888
让对方	-16889
设立的	-16890
设计了	-16891
购买的	-16892
这些年	-16893
这才是	-16894
连接到	-16895
通讯员	-16896
防火墙	-16897
附着力	-16898
非常多	-16899
Keep	-16900
ript	-16901
work	-16902
▁Con	-16903
一线城市	-16904
不断增强	-16905
专业人才	-16906
世界经济	-16907
中华民国	-16908
为了防止	-16909
优异成绩	-16910
优秀学生	-16911
俱乐部的	-16912
免费提供	-16913
全面落实	-16914
可以减少	-16915
国有资产	-16916
坚实基础	-16917
复旦大学	-16918
如何使用	-16919
如何发展	-16920
如火如荼	-16921
实际问题	-16922
实际需要	-16923
客户要求	-16924
就会出现	-16925
工程造价	-16926
成人学历	-16927
扎实推进	-16928
执行情况	-16929
技术水平	-16930
技能培训	-16931
推拉力计	-16932
操作简便	-16933
有关单位	-16934
有更多的	-16935
有期徒刑	-16936
污染治理	-16937
环氧地坪	-16938
生物医药	-16939
的环境下	-16940
知道自己	-16941
符合国家	-16942
细分市场	-16943
耐火材料	-16944
表达能力	-16945
负氧离子	-16946
身体状况	-16947
辅助服务	-16948
重中之重	-16949
非常方便	-16950
▁Play	-16951
▁山东成考	-16952
不错的选择	-16953
主要集中在	-16954
可能会出现	-16955
市场占有率	-16956
征求意见稿	-16957
我们的网站	-16958
新发展理念	-16959
线切割机床	-16960
经济发展的	-16961
自成立以来	-16962
解决的问题	-16963
党风廉政建设	-16964
屏蔽试验大厅	-16965
行政主管部门	-16966
GF	-16967
IR	-16968
TA	-16969
’。	-16970
▁◎	-16971
▁台	-16972
▁网	-16973
▁非	-16974
一月	-16975
一瓶	-16976
万千	-16977
上进	-16978
下级	-16979
不全	-16980
专场	-16981
中了	-16982
中控	-16983
丰满	-16984
主讲	-16985
之乡	-16986
之夜	-16987
之日	-16988
事事	-16989
亚东	-16990
亿人	-16991
价款	-16992
优胜	-16993
会见	-16994
作假	-16995
保单	-16996
保湿	-16997
保罗	-16998
修整	-16999
八十	-17000
关切	-17001
减退	-17002
分段	-17003
则以	-17004
剪辑	-17005
加分	-17006
加压	-17007
北新	-17008
卷帘	-17009
原木	-17010
去向	-17011
参阅	-17012
发型	-17013
听着	-17014
周四	-17015
呼叫	-17016
商的	-17017
器皿	-17018
四位	-17019
回合	-17020
国美	-17021
图画	-17022
土建	-17023
地貌	-17024
外围	-17025
外长	-17026
够了	-17027
大体	-17028
大军	-17029
大成	-17030
天鹅	-17031
始于	-17032
它能	-17033
宛如	-17034
小巷	-17035
山上	-17036
山大	-17037
岁时	-17038
岗亭	-17039
川普	-17040
常有	-17041
平和	-17042
平坦	-17043
年到	-17044
年报	-17045
年终	-17046
底的	-17047
延误	-17048
形的	-17049
得其	-17050
心愿	-17051
怒江	-17052
我来	-17053
手可	-17054
手腕	-17055
批复	-17056
抚养	-17057
换人	-17058
撤离	-17059
文斯	-17060
方能	-17061
日志	-17062
日月	-17063
时而	-17064
昏迷	-17065
最先	-17066
月末	-17067
未被	-17068
机在	-17069
机油	-17070
杀手	-17071
权和	-17072
松弛	-17073
棵树	-17074
樱花	-17075
比尔	-17076
水庆	-17077
汇款	-17078
沐浴	-17079
油品	-17080
泉源	-17081
法师	-17082
洋溢	-17083
海的	-17084
渗入	-17085
火山	-17086
点位	-17087
点火	-17088
照料	-17089
燃煤	-17090
爆出	-17091
状的	-17092
状腺	-17093
瓦楞	-17094
田园	-17095
百岁	-17096
盒子	-17097
盘中	-17098
直达	-17099
相亲	-17100
相片	-17101
省心	-17102
真菌	-17103
离岸	-17104
稀缺	-17105
税法	-17106
章节	-17107
纵深	-17108
结识	-17109
维吾	-17110
网讯	-17111
耕耘	-17112
聊聊	-17113
联席	-17114
肇事	-17115
背叛	-17116
背部	-17117
脖子	-17118
腰部	-17119
自发	-17120
菠萝	-17121
落叶	-17122
表单	-17123
视察	-17124
解封	-17125
访客	-17126
请教	-17127
诸佛	-17128
货源	-17129
赶到	-17130
转折	-17131
还为	-17132
都对	-17133
重叠	-17134
金平	-17135
钣金	-17136
钻研	-17137
门前	-17138
阴凉	-17139
阻抗	-17140
院区	-17141
随处	-17142
靠前	-17143
预设	-17144
风和	-17145
风水	-17146
风湿	-17147
飞翔	-17148
骆驼	-17149
高昂	-17150
高潮	-17151
API	-17152
Red	-17153
XXX	-17154
ern	-17155
ohn	-17156
rom	-17157
▁只有	-17158
一口气	-17159
一定能	-17160
一致性	-17161
一般人	-17162
不到位	-17163
与普通	-17164
专卖店	-17165
两年的	-17166
中小微	-17167
中心和	-17168
为主体	-17169
为主导	-17170
为患者	-17171
事半功	-17172
产品及	-17173
从这个	-17174
任务的	-17175
企业中	-17176
优势和	-17177
但还是	-17178
你觉得	-17179
供大家	-17180
倍以上	-17181
关心的	-17182
内瑞拉	-17183
出不穷	-17184
出货量	-17185
十八大	-17186
参与到	-17187
发展中	-17188
发现的	-17189
各领域	-17190
含量的	-17191
听取了	-17192
和保护	-17193
基督教	-17194
奥兰熊	-17195
完毕后	-17196
对所有	-17197
尺寸的	-17198
工程中	-17199
带大家	-17200
并具有	-17201
应符合	-17202
建立在	-17203
微表处	-17204
快乐的	-17205
总面积	-17206
房间的	-17207
所提供	-17208
手中的	-17209
打开了	-17210
拥有了	-17211
掌握了	-17212
数据和	-17213
方方面	-17214
方案的	-17215
更多人	-17216
更方便	-17217
更重要	-17218
欢迎您	-17219
殊不知	-17220
母亲节	-17221
毛利率	-17222
流量的	-17223
浓度的	-17224
源热泵	-17225
潜意识	-17226
理解和	-17227
甚至有	-17228
生产出	-17229
的另一	-17230
的宗旨	-17231
的情形	-17232
的行动	-17233
立足于	-17234
管理人	-17235
精神的	-17236
精美的	-17237
纪录片	-17238
花时间	-17239
观察到	-17240
计划书	-17241
设置的	-17242
还不是	-17243
这一天	-17244
这样就	-17245
那个人	-17246
那么就	-17247
都是以	-17248
酒店的	-17249
防腐蚀	-17250
非物质	-17251
鲜明的	-17252
Word	-17253
line	-17254
ouse	-17255
一般采用	-17256
严重不足	-17257
交易市场	-17258
产业升级	-17259
但是我们	-17260
党委委员	-17261
全面分析	-17262
创造价值	-17263
医疗设备	-17264
发展成为	-17265
可以轻松	-17266
各个方面	-17267
国企改革	-17268
国内国际	-17269
大大降低	-17270
如果想要	-17271
委内瑞拉	-17272
学历提升	-17273
容易出现	-17274
就是我们	-17275
巴塞罗那	-17276
平台建设	-17277
技术规范	-17278
招商引资	-17279
政协委员	-17280
数字化的	-17281
方式进行	-17282
无论如何	-17283
没有一个	-17284
沥青价格	-17285
的是什么	-17286
目前国内	-17287
研究工作	-17288
硕士学位	-17289
简要描述	-17290
自主品牌	-17291
虽然没有	-17292
行政审批	-17293
越来越好	-17294
达成协议	-17295
这样一来	-17296
通过网络	-17297
重要指示	-17298
长效机制	-17299
aster	-17300
亿元人民币	-17301
受疫情影响	-17302
广泛的应用	-17303
有针对性的	-17304
汽车后市场	-17305
的一致好评	-17306
的发展趋势	-17307
自动化程度	-17308
负责人表示	-17309
进一步扩大	-17310
技术有限公司	-17311
机械有限公司	-17312
深入贯彻落实	-17313
盘扣式脚手架	-17314
▁Studio	-17315
HR	-17316
HZ	-17317
▁方	-17318
。,	-17319
》;	-17320
一脸	-17321
下手	-17322
下雨	-17323
不爱	-17324
个个	-17325
为先	-17326
为己	-17327
之本	-17328
了好	-17329
争论	-17330
事发	-17331
代会	-17332
以求	-17333
价差	-17334
使他	-17335
依规	-17336
偏远	-17337
减压	-17338
出线	-17339
务工	-17340
十个	-17341
华语	-17342
单机	-17343
及各	-17344
反抗	-17345
反转	-17346
名声	-17347
和阿	-17348
唐人	-17349
嘴里	-17350
团伙	-17351
国情	-17352
图中	-17353
在哪	-17354
型态	-17355
声道	-17356
大姐	-17357
太小	-17358
太长	-17359
套件	-17360
套路	-17361
套餐	-17362
婚介	-17363
安德	-17364
官僚	-17365
官宣	-17366
定性	-17367
寄托	-17368
尔巴	-17369
尾巴	-17370
展台	-17371
应试	-17372
开场	-17373
开挖	-17374
异的	-17375
弗兰	-17376
往复	-17377
得名	-17378
心意	-17379
急于	-17380
性情	-17381
悠闲	-17382
我局	-17383
打扫	-17384
把他	-17385
抗拉	-17386
挂着	-17387
接缝	-17388
搜查	-17389
散布	-17390
数以	-17391
文科	-17392
断开	-17393
新浪	-17394
日历	-17395
日晒	-17396
明晰	-17397
是想	-17398
曼省	-17399
月珍	-17400
有助	-17401
木门	-17402
未曾	-17403
杜鹃	-17404
枯燥	-17405
查明	-17406
标明	-17407
桌上	-17408
棒的	-17409
橡皮	-17410
死角	-17411
毛孔	-17412
汉字	-17413
江泽	-17414
沉重	-17415
河湖	-17416
涌入	-17417
滋生	-17418
点球	-17419
热能	-17420
特地	-17421
玉林	-17422
班组	-17423
留给	-17424
的电	-17425
皆是	-17426
盗窃	-17427
盛行	-17428
着你	-17429
知府	-17430
碎石	-17431
稀土	-17432
税额	-17433
紫阳	-17434
红星	-17435
结实	-17436
继而	-17437
缠绕	-17438
老鼠	-17439
脚垫	-17440
茄子	-17441
藏着	-17442
血浆	-17443
衣食	-17444
要说	-17445
见识	-17446
语气	-17447
请你	-17448
账单	-17449
贪污	-17450
费的	-17451
起动	-17452
起飞	-17453
较早	-17454
边框	-17455
进货	-17456
连同	-17457
连带	-17458
送出	-17459
遮挡	-17460
都与	-17461
都以	-17462
都想	-17463
金奖	-17464
金的	-17465
隶属	-17466
风向	-17467
食的	-17468
高通	-17469
鱼的	-17470
龟头	-17471
FDA	-17472
oom	-17473
wit	-17474
▁st	-17475
▁即使	-17476
▁感谢	-17477
▁现代	-17478
▁说到	-17479
▁购买	-17480
▁进行	-17481
不使用	-17482
与生活	-17483
也只是	-17484
也同样	-17485
乳腺癌	-17486
了出来	-17487
了我们	-17488
伊斯兰	-17489
会根据	-17490
作品中	-17491
使他们	-17492
加入到	-17493
危险的	-17494
原作者	-17495
可以的	-17496
向我们	-17497
和经济	-17498
在教学	-17499
在网络	-17500
在路上	-17501
多万元	-17502
多利亚	-17503
大型的	-17504
好好地	-17505
安排的	-17506
对网站	-17507
就是指	-17508
就算是	-17509
岁以下	-17510
应当向	-17511
开发出	-17512
当年的	-17513
很喜欢	-17514
必须是	-17515
我们从	-17516
战斗力	-17517
文件中	-17518
方向的	-17519
方矩管	-17520
日内瓦	-17521
日常的	-17522
日正式	-17523
是不会	-17524
更符合	-17525
最好是	-17526
月下旬	-17527
有几个	-17528
来确定	-17529
某一个	-17530
模块化	-17531
江泽民	-17532
法学会	-17533
洗车机	-17534
温度的	-17535
灭火器	-17536
甲状腺	-17537
的不断	-17538
的人数	-17539
的含量	-17540
的物质	-17541
的理由	-17542
的眼睛	-17543
的美国	-17544
确实是	-17545
碳排放	-17546
神秘的	-17547
程序员	-17548
竞争中	-17549
端午节	-17550
第三个	-17551
第五届	-17552
第四届	-17553
管委会	-17554
精确的	-17555
细致的	-17556
网约车	-17557
而努力	-17558
自然人	-17559
自贸区	-17560
莫斯科	-17561
被告人	-17562
被认为	-17563
要提高	-17564
要通过	-17565
设备中	-17566
设备等	-17567
设施的	-17568
责任和	-17569
运用于	-17570
近两年	-17571
通常会	-17572
都有了	-17573
采访中	-17574
防爆灯	-17575
领域中	-17576
鼓风机	-17577
QDII	-17578
ltra	-17579
tern	-17580
▁The	-17581
▁不锈钢	-17582
▁据介绍	-17583
▁新华社	-17584
一目了然	-17585
两个方面	-17586
中国足球	-17587
中央第五	-17588
从根本上	-17589
出口退税	-17590
发展的新	-17591
可以利用	-17592
各不相同	-17593
国家统一	-17594
大专院校	-17595
层出不穷	-17596
工作时间	-17597
工作要求	-17598
市场营销	-17599
广大客户	-17600
循序渐进	-17601
成为一名	-17602
成为全球	-17603
承办部门	-17604
技术要求	-17605
提起诉讼	-17606
政治站位	-17607
有针对性	-17608
根本没有	-17609
正在进行	-17610
特别适合	-17611
现场确认	-17612
用户使用	-17613
相关内容	-17614
研究制定	-17615
神经系统	-17616
第一季度	-17617
经济技术	-17618
经营许可	-17619
给人一种	-17620
继续教育	-17621
网上报名	-17622
美好生活	-17623
落到实处	-17624
财务管理	-17625
贯彻执行	-17626
重点工作	-17627
重点阐述	-17628
Magic	-17629
Micro	-17630
工作的通知	-17631
市场监管局	-17632
是最重要的	-17633
最大限度地	-17634
条款及细则	-17635
自己的孩子	-17636
让我们一起	-17637
集团董事长	-17638
Cookie	-17639
生产建设兵团	-17640
生态环境保护督察组	-17641
中央第五生态环境保护督察组	-17642
()	-17643
LD	-17644
No	-17645
PT	-17646
ox	-17647
⋯⋯	-17648
▁#	-17649
▁号	-17650
▁罗	-17651
一趟	-17652
上任	-17653
不惜	-17654
不离	-17655
不计	-17656
与水	-17657
与被	-17658
专班	-17659
主意	-17660
之水	-17661
乐器	-17662
乐威	-17663
乐曲	-17664
买单	-17665
二号	-17666
五四	-17667
仁宗	-17668
从上	-17669
代工	-17670
以至	-17671
侦测	-17672
做工	-17673
停放	-17674
像个	-17675
兑换	-17676
八月	-17677
共和	-17678
农林	-17679
凹凸	-17680
加料	-17681
励志	-17682
勘察	-17683
化了	-17684
十堰	-17685
原稿	-17686
又将	-17687
吃过	-17688
同享	-17689
向着	-17690
喝茶	-17691
因人	-17692
园艺	-17693
在全	-17694
在建	-17695
均是	-17696
坐下	-17697
基点	-17698
多用	-17699
大兴	-17700
大王	-17701
大跌	-17702
奔波	-17703
字样	-17704
孙子	-17705
学派	-17706
宣扬	-17707
小幅	-17708
就已	-17709
已知	-17710
并处	-17711
幼苗	-17712
庄严	-17713
应邀	-17714
开来	-17715
影子	-17716
急诊	-17717
总值	-17718
想的	-17719
意甲	-17720
成才	-17721
打动	-17722
打的	-17723
抢占	-17724
报案	-17725
抬起	-17726
拐杖	-17727
推拉	-17728
支承	-17729
敦促	-17730
断面	-17731
明知	-17732
显卡	-17733
晚报	-17734
有线	-17735
杆菌	-17736
条约	-17737
来信	-17738
构想	-17739
正本	-17740
水体	-17741
沙龙	-17742
油腻	-17743
治水	-17744
深情	-17745
温控	-17746
源源	-17747
点半	-17748
由其	-17749
画画	-17750
的黑	-17751
盖上	-17752
看点	-17753
破除	-17754
租借	-17755
窗外	-17756
等高	-17757
紊乱	-17758
网吧	-17759
而至	-17760
肠炎	-17761
背着	-17762
能动	-17763
节水	-17764
草药	-17765
莱芜	-17766
获胜	-17767
蕴含	-17768
议院	-17769
试卷	-17770
该国	-17771
请在	-17772
诸葛	-17773
豪门	-17774
贝壳	-17775
货款	-17776
贫穷	-17777
赚取	-17778
越过	-17779
踢球	-17780
身子	-17781
进的	-17782
迪拜	-17783
遗漏	-17784
遥远	-17785
酸痛	-17786
重申	-17787
金银	-17788
铁矿	-17789
镜像	-17790
问到	-17791
隔壁	-17792
雄风	-17793
集约	-17794
雾化	-17795
预选	-17796
风琴	-17797
香烟	-17798
香甜	-17799
高能	-17800
ake	-17801
eld	-17802
ren	-17803
ull	-17804
▁以下	-17805
▁发布	-17806
▁建设	-17807
。”(	-17808
下一次	-17809
不产生	-17810
不正确	-17811
与传统	-17812
与现代	-17813
中央社	-17814
主动性	-17815
之一是	-17816
之后再	-17817
乐威壮	-17818
也因为	-17819
二十四	-17820
今天就	-17821
以任何	-17822
仲裁员	-17823
但是一	-17824
供给侧	-17825
保温层	-17826
公司于	-17827
公司对	-17828
准确地	-17829
切尔西	-17830
十年代	-17831
华尔街	-17832
参观了	-17833
双版纳	-17834
反过来	-17835
发展与	-17836
召开了	-17837
可作为	-17838
可能对	-17839
和设备	-17840
在各种	-17841
在很多	-17842
在我的	-17843
场景中	-17844
垃圾桶	-17845
大学校	-17846
孩子在	-17847
对象的	-17848
小学生	-17849
就成了	-17850
尽全力	-17851
工具和	-17852
应当将	-17853
延伸到	-17854
引发的	-17855
总数的	-17856
悠久的	-17857
所以要	-17858
所做的	-17859
找一个	-17860
拍卖人	-17861
拿到了	-17862
挖掘机	-17863
播地址	-17864
文明的	-17865
旅游局	-17866
昂贵的	-17867
星期一	-17868
是世界	-17869
是全国	-17870
是多么	-17871
是用来	-17872
是美国	-17873
暖气片	-17874
更加多	-17875
有价值	-17876
有多种	-17877
染色体	-17878
母细胞	-17879
比利时	-17880
民法典	-17881
流量计	-17882
涵盖了	-17883
温湿度	-17884
珍贵的	-17885
生孩子	-17886
的不良	-17887
的主流	-17888
的决心	-17889
的手段	-17890
的智能	-17891
的联系	-17892
相比较	-17893
研发出	-17894
科学与	-17895
突如其	-17896
第五套	-17897
类专业	-17898
给人以	-17899
统计学	-17900
维吾尔	-17901
而是在	-17902
而没有	-17903
耐久性	-17904
股东的	-17905
花岗岩	-17906
范围广	-17907
虽然是	-17908
表面积	-17909
计划在	-17910
调味品	-17911
财政性	-17912
跟我们	-17913
轮联赛	-17914
近距离	-17915
通过的	-17916
都有着	-17917
集中的	-17918
集团在	-17919
黄褐斑	-17920
Toro	-17921
echn	-17922
edia	-17923
▁国务院	-17924
▁白癜风	-17925
上下功夫	-17926
不是一个	-17927
业务流程	-17928
也得到了	-17929
信息共享	-17930
信息发布	-17931
全面从严	-17932
再生能源	-17933
切分单位	-17934
加工中心	-17935
包装材料	-17936
北京冬奥	-17937
医务人员	-17938
发动机的	-17939
启动仪式	-17940
备案审查	-17941
安全稳定	-17942
安全计算	-17943
容易造成	-17944
尽量不要	-17945
工作中的	-17946
建筑物的	-17947
心理健康	-17948
总部位于	-17949
我们希望	-17950
所有人都	-17951
无论是在	-17952
最后一个	-17953
检测仪器	-17954
欢迎大家	-17955
毕业论文	-17956
永远不会	-17957
沥青路面	-17958
治理能力	-17959
环境质量	-17960
生态保护	-17961
相关企业	-17962
科研成果	-17963
笔字培训	-17964
老旧小区	-17965
职务违法	-17966
自行承担	-17967
设备进行	-17968
通知如下	-17969
长期使用	-17970
餐饮企业	-17971
饮食习惯	-17972
COVID	-17973
Linux	-17974
工作人员的	-17975
残疾人康复	-17976
牛皮癣患者	-17977
选择合适的	-17978
▁Cloud	-17979
发展有限公司	-17980
工业和信息化	-17981
服务有限公司	-17982
自主知识产权	-17983
越来越多的人	-17984
Station	-17985
中华民族伟大复兴	-17986
新疆生产建设兵团	-17987
社会保险基金预算	-17988
!)	-17989
?’	-17990
?《	-17991
Am	-17992
cl	-17993
▁回	-17994
▁家	-17995
、、	-17996
一届	-17997
一笑	-17998
上角	-17999
下山	-18000
下文	-18001
不畏	-18002
不耐	-18003
与时	-18004
中路	-18005
久之	-18006
之光	-18007
之称	-18008
也正	-18009
也给	-18010
买车	-18011
争先	-18012
事中	-18013
亚当	-18014
交友	-18015
他把	-18016
会比	-18017
传球	-18018
例行	-18019
元旦	-18020
充血	-18021
克福	-18022
兴旺	-18023
兼备	-18024
凭据	-18025
分歧	-18026
刘备	-18027
别说	-18028
剂等	-18029
前任	-18030
剖宫	-18031
剥夺	-18032
动摇	-18033
升华	-18034
卢俊	-18035
参选	-18036
台词	-18037
吃完	-18038
同名	-18039
同城	-18040
名气	-18041
后在	-18042
启蒙	-18043
呼声	-18044
和中	-18045
和无	-18046
喜鹊	-18047
四面	-18048
地段	-18049
均价	-18050
壁挂	-18051
复活	-18052
外侧	-18053
多发	-18054
大户	-18055
大象	-18056
失衡	-18057
好人	-18058
孙策	-18059
学分	-18060
学前	-18061
孩童	-18062
它对	-18063
客车	-18064
宫廷	-18065
对冲	-18066
导读	-18067
就更	-18068
尽头	-18069
尽职	-18070
山顶	-18071
师兄	-18072
平的	-18073
底蕴	-18074
废止	-18075
开销	-18076
归来	-18077
往事	-18078
心仪	-18079
心生	-18080
性及	-18081
总和	-18082
总有	-18083
悉尼	-18084
截然	-18085
打败	-18086
承压	-18087
投降	-18088
拔牙	-18089
指控	-18090
据此	-18091
排泄	-18092
接管	-18093
放出	-18094
整顿	-18095
文武	-18096
新政	-18097
时政	-18098
时至	-18099
智商	-18100
暴晒	-18101
棉花	-18102
楼下	-18103
楼层	-18104
次日	-18105
比拟	-18106
比数	-18107
比率	-18108
江宁	-18109
沙子	-18110
沸腾	-18111
浇筑	-18112
测温	-18113
浮雕	-18114
涡轮	-18115
港股	-18116
点滴	-18117
热熔	-18118
热风	-18119
版块	-18120
版面	-18121
狭窄	-18122
用语	-18123
疤痕	-18124
百元	-18125
皮的	-18126
相符	-18127
票价	-18128
空运	-18129
穿孔	-18130
立面	-18131
站的	-18132
端环	-18133
算力	-18134
管内	-18135
类和	-18136
精制	-18137
繁杂	-18138
线缆	-18139
组团	-18140
绑定	-18141
置疑	-18142
美中	-18143
职权	-18144
肥皂	-18145
脚本	-18146
色差	-18147
苛刻	-18148
苦难	-18149
英才	-18150
茶园	-18151
获益	-18152
补水	-18153
诗词	-18154
课本	-18155
谁能	-18156
豆奶	-18157
豪宅	-18158
赛的	-18159
走高	-18160
趋向	-18161
跟党	-18162
身旁	-18163
较量	-18164
输掉	-18165
迎合	-18166
运河	-18167
还想	-18168
追寻	-18169
送去	-18170
适配	-18171
逍遥	-18172
通路	-18173
造访	-18174
遵照	-18175
那儿	-18176
酒庄	-18177
重任	-18178
重在	-18179
铁道	-18180
铺装	-18181
镜片	-18182
阐释	-18183
集会	-18184
颤抖	-18185
风速	-18186
餐厨	-18187
饭菜	-18188
香水	-18189
马车	-18190
高尚	-18191
魔幻	-18192
麻将	-18193
ORT	-18194
SCP	-18195
▁了解	-18196
▁人们	-18197
▁今日	-18198
▁位于	-18199
▁加强	-18200
▁执行	-18201
▁智能	-18202
▁有关	-18203
▁经济	-18204
▁进入	-18205
一些小	-18206
一步步	-18207
上世纪	-18208
与大家	-18209
两大类	-18210
中加入	-18211
了一段	-18212
价值链	-18213
优缺点	-18214
会觉得	-18215
借款人	-18216
做不到	-18217
再融资	-18218
几分钟	-18219
出入口	-18220
动物的	-18221
助学金	-18222
半决赛	-18223
协议书	-18224
卫健委	-18225
原来是	-18226
去中心	-18227
受访者	-18228
另一半	-18229
台南市	-18230
和提高	-18231
商学院	-18232
国防部	-18233
在产品	-18234
天左右	-18235
天津市	-18236
威士忌	-18237
完全是	-18238
密度的	-18239
对产品	-18240
屏幕上	-18241
工作上	-18242
工艺品	-18243
希望你	-18244
影响着	-18245
我发现	-18246
护林员	-18247
拿出来	-18248
指挥官	-18249
损失的	-18250
据报道	-18251
授权的	-18252
提到了	-18253
收入的	-18254
是一座	-18255
最新版	-18256
有保障	-18257
有用的	-18258
期限内	-18259
条件和	-18260
来决定	-18261
检测仪	-18262
没关系	-18263
生命力	-18264
病人的	-18265
的语言	-18266
的这个	-18267
相色谱	-18268
等要求	-18269
管道的	-18270
给我的	-18271
维持在	-18272
绿色的	-18273
缺点是	-18274
耐化学	-18275
能保持	-18276
自治县	-18277
装置的	-18278
该系统	-18279
起重机	-18280
运营的	-18281
这不仅	-18282
这使得	-18283
这样子	-18284
通过与	-18285
都具有	-18286
钢丝绳	-18287
阻击战	-18288
附加值	-18289
隐私权	-18290
预防性	-18291
高密度	-18292
黑色的	-18293
ical	-18294
不会影响	-18295
中国银行	-18296
也不例外	-18297
人居环境	-18298
人才队伍	-18299
公开招标	-18300
具体要求	-18301
分析方法	-18302
发展中心	-18303
基础知识	-18304
实实在在	-18305
实施细则	-18306
实际操作	-18307
室内空气	-18308
工作需要	-18309
巩固拓展	-18310
开展工作	-18311
当地政府	-18312
意想不到	-18313
成本管理	-18314
所造成的	-18315
支付方式	-18316
数控车床	-18317
时间序列	-18318
是否可以	-18319
最常见的	-18320
有很好的	-18321
法兰克福	-18322
特殊要求	-18323
的时候就	-18324
知名企业	-18325
系统中的	-18326
综合治理	-18327
自动驾驶	-18328
茂名石化	-18329
被认为是	-18330
设计要求	-18331
资金使用	-18332
这样的人	-18333
进行全面	-18334
量身定制	-18335
产业发展的	-18336
可能会导致	-18337
在此基础上	-18338
房地产市场	-18339
新闻发布会	-18340
核心价值观	-18341
独一无二的	-18342
项目负责人	-18343
可持续发展的	-18344
思想政治工作	-18345
政府工作报告	-18346
第五套人民币	-18347
习近平总书记在	-18348
--------	-18349
?“	-18350
EB	-18351
EI	-18352
KW	-18353
MV	-18354
UL	-18355
uk	-18356
▁了	-18357
▁早	-18358
▁神	-18359
▁郑	-18360
▁首	-18361
一双	-18362
一味	-18363
七月	-18364
三界	-18365
上加	-18366
不复	-18367
且有	-18368
东亚	-18369
严寒	-18370
之士	-18371
之都	-18372
五花	-18373
交道	-18374
亲和	-18375
亲生	-18376
仓位	-18377
价廉	-18378
任教	-18379
优劣	-18380
但你	-18381
低速	-18382
倒了	-18383
候官	-18384
停滞	-18385
儿的	-18386
光子	-18387
入党	-18388
全套	-18389
全州	-18390
内科	-18391
军马	-18392
减水	-18393
分差	-18394
切口	-18395
到你	-18396
加氢	-18397
化验	-18398
匠心	-18399
匿名	-18400
半夜	-18401
叔叔	-18402
口中	-18403
只得	-18404
吐槽	-18405
向内	-18406
四月	-18407
固执	-18408
在京	-18409
地狱	-18410
型钢	-18411
埃及	-18412
堆放	-18413
壮观	-18414
壮阳	-18415
复查	-18416
天性	-18417
奈何	-18418
如玉	-18419
安娜	-18420
客商	-18421
小巧	-18422
布斯	-18423
平价	-18424
年和	-18425
度数	-18426
建有	-18427
异步	-18428
形体	-18429
快餐	-18430
急忙	-18431
性命	-18432
怪物	-18433
想让	-18434
我区	-18435
房东	-18436
打折	-18437
托靠	-18438
投行	-18439
抽出	-18440
授信	-18441
摩尔	-18442
放管	-18443
散户	-18444
整整	-18445
日程	-18446
普世	-18447
最优	-18448
有情	-18449
期为	-18450
木塞	-18451
本体	-18452
本部	-18453
来往	-18454
杨洋	-18455
林区	-18456
栖息	-18457
检讨	-18458
沮丧	-18459
油画	-18460
法令	-18461
波尔	-18462
波特	-18463
泵的	-18464
煤层	-18465
爱护	-18466
物力	-18467
瓶盖	-18468
生根	-18469
电泳	-18470
的王	-18471
皆为	-18472
皇冠	-18473
皱纹	-18474
相传	-18475
相助	-18476
看守	-18477
硬质	-18478
私立	-18479
空包	-18480
突显	-18481
管件	-18482
管局	-18483
管教	-18484
紧缩	-18485
经开	-18486
网球	-18487
翻新	-18488
者们	-18489
联防	-18490
胸怀	-18491
自重	-18492
舒缓	-18493
航运	-18494
船员	-18495
英尺	-18496
茶的	-18497
菜鸟	-18498
街上	-18499
褪色	-18500
视听	-18501
认清	-18502
讲授	-18503
该机	-18504
请于	-18505
读了	-18506
走来	-18507
跨度	-18508
身在	-18509
车程	-18510
辜负	-18511
这与	-18512
迪奥	-18513
送往	-18514
通畅	-18515
酒业	-18516
酒类	-18517
酸钠	-18518
镶嵌	-18519
长年	-18520
雄安	-18521
顺势	-18522
风雪	-18523
马桶	-18524
驻足	-18525
骗子	-18526
鸽子	-18527
麻疹	-18528
黛玉	-18529
ath	-18530
dge	-18531
ert	-18532
iew	-18533
igh	-18534
its	-18535
rid	-18536
ude	-18537
xxx	-18538
▁也许	-18539
▁各级	-18540
▁本书	-18541
▁标准	-18542
▁每天	-18543
不变的	-18544
世界级	-18545
为了使	-18546
主演的	-18547
于是以	-18548
什么的	-18549
债权人	-18550
做的事	-18551
充电器	-18552
先生的	-18553
创新和	-18554
创造的	-18555
到哪里	-18556
努力的	-18557
又可以	-18558
合肥市	-18559
后期的	-18560
和专业	-18561
和他们	-18562
和学习	-18563
因为其	-18564
处理好	-18565
大健康	-18566
委托书	-18567
季节性	-18568
实体店	-18569
小分子	-18570
少年的	-18571
就无法	-18572
就是以	-18573
就显得	-18574
工件的	-18575
工程量	-18576
工程院	-18577
带孩子	-18578
广州城	-18579
应该要	-18580
开展的	-18581
意思是	-18582
房子的	-18583
批准的	-18584
提交的	-18585
政治局	-18586
教育厅	-18587
方式来	-18588
时间短	-18589
是否能	-18590
普通人	-18591
智慧和	-18592
月份的	-18593
有人在	-18594
有的是	-18595
有需要	-18596
根本性	-18597
梦想的	-18598
检测和	-18599
每一项	-18600
比较少	-18601
煤化工	-18602
甚至会	-18603
电加热	-18604
的员工	-18605
的工艺	-18606
的组合	-18607
的背后	-18608
的观点	-18609
的距离	-18610
监测和	-18611
相匹配	-18612
科技型	-18613
等优势	-18614
纯净水	-18615
结束时	-18616
给出的	-18617
美味的	-18618
而现在	-18619
能够为	-18620
营业部	-18621
认证的	-18622
讨论了	-18623
设计院	-18624
课桌椅	-18625
资源化	-18626
部位的	-18627
马德里	-18628
HTTP	-18629
IBAN	-18630
Meta	-18631
▁for	-18632
不会产生	-18633
乡土建筑	-18634
事半功倍	-18635
介绍青岛	-18636
但是由于	-18637
使用的是	-18638
充分运用	-18639
冰雪运动	-18640
创新中心	-18641
制度建设	-18642
印象深刻	-18643
大幅提高	-18644
容易产生	-18645
屏蔽大厅	-18646
工业生产	-18647
建筑垃圾	-18648
很长时间	-18649
您可以在	-18650
把自己的	-18651
提供更多	-18652
有害气体	-18653
服务保障	-18654
服务器的	-18655
机器设备	-18656
机构编制	-18657
机械制造	-18658
比较简单	-18659
治疗方案	-18660
海外市场	-18661
深入学习	-18662
环境治理	-18663
电子竞技	-18664
的影响力	-18665
社会工作	-18666
积极参加	-18667
综合实力	-18668
职责分工	-18669
设备制造	-18670
购买服务	-18671
运营管理	-18672
这是我们	-18673
进行调查	-18674
造成影响	-18675
顶层设计	-18676
项目实施	-18677
一段时间后	-18678
以实际行动	-18679
全资子公司	-18680
关于进一步	-18681
命运共同体	-18682
并不意味着	-18683
施工过程中	-18684
足球俱乐部	-18685
采访时表示	-18686
严重违法失信	-18687
学历提升平台	-18688
工作领导小组	-18689
新冠病毒疫苗	-18690
鸦胆子油口服	-18691
重点阐述山东成考	-18692
学历提升平台重点阐述山东成考	-18693
%~	-18694
GR	-18695
QL	-18696
UT	-18697
▁~	-18698
▁写	-18699
▁北	-18700
▁受	-18701
▁红	-18702
▁能	-18703
〓〓	-18704
一刀	-18705
一词	-18706
上载	-18707
下发	-18708
不振	-18709
东路	-18710
丢弃	-18711
个子	-18712
丰厚	-18713
丸子	-18714
为天	-18715
之多	-18716
之忧	-18717
乖乖	-18718
也与	-18719
书屋	-18720
书豪	-18721
了在	-18722
五是	-18723
交出	-18724
产科	-18725
亲手	-18726
人也	-18727
他命	-18728
会和	-18729
伤亡	-18730
伯格	-18731
低位	-18732
你一	-18733
你和	-18734
佳节	-18735
信箱	-18736
光大	-18737
克尔	-18738
全院	-18739
公报	-18740
凯特	-18741
则会	-18742
力行	-18743
区县	-18744
升起	-18745
单日	-18746
单调	-18747
卖场	-18748
历代	-18749
原谅	-18750
县域	-18751
变性	-18752
叫我	-18753
同质	-18754
同轴	-18755
商量	-18756
商铺	-18757
围墙	-18758
圈子	-18759
外商	-18760
多做	-18761
大类	-18762
嫉妒	-18763
季刊	-18764
安乐	-18765
实操	-18766
宽带	-18767
寄存	-18768
对小	-18769
对战	-18770
届满	-18771
山坡	-18772
帐户	-18773
常被	-18774
干了	-18775
平顺	-18776
并把	-18777
并网	-18778
广义	-18779
开班	-18780
当好	-18781
得住	-18782
得天	-18783
忍耐	-18784
或其	-18785
所欲	-18786
扳平	-18787
把你	-18788
拳道	-18789
拼命	-18790
挂号	-18791
按月	-18792
换取	-18793
搭档	-18794
放行	-18795
敲击	-18796
日系	-18797
早早	-18798
明珠	-18799
是非	-18800
晚期	-18801
未婚	-18802
本息	-18803
村级	-18804
条形	-18805
松散	-18806
核定	-18807
沉迷	-18808
河长	-18809
洞庭	-18810
浓浓	-18811
海边	-18812
消解	-18813
满怀	-18814
点心	-18815
烛火	-18816
热管	-18817
熄灭	-18818
牌子	-18819
独资	-18820
申购	-18821
看护	-18822
矿井	-18823
私下	-18824
私自	-18825
积木	-18826
税费	-18827
立志	-18828
等都	-18829
给与	-18830
缅怀	-18831
缅甸	-18832
罗汉	-18833
美方	-18834
联接	-18835
肩膀	-18836
胶带	-18837
脉络	-18838
船只	-18839
若能	-18840
范例	-18841
营利	-18842
落脚	-18843
蒸煮	-18844
螺母	-18845
街区	-18846
补救	-18847
西路	-18848
解散	-18849
订货	-18850
诗意	-18851
谱写	-18852
赞叹	-18853
路况	-18854
车体	-18855
车前	-18856
辉瑞	-18857
迷人	-18858
选材	-18859
邀约	-18860
那年	-18861
配料	-18862
释迦	-18863
镇静	-18864
陈皮	-18865
难关	-18866
难怪	-18867
韭菜	-18868
飞船	-18869
高贵	-18870
鲜活	-18871
麻木	-18872
IVE	-18873
ade	-18874
con	-18875
▁Th	-18876
▁不同	-18877
▁以及	-18878
▁就在	-18879
▁市场	-18880
▁广告	-18881
▁德国	-18882
▁设备	-18883
▁重庆	-18884
一直到	-18885
不及时	-18886
不能用	-18887
与创新	-18888
与台湾	-18889
与自己	-18890
中国区	-18891
中的一	-18892
临床上	-18893
也只有	-18894
了一张	-18895
二极管	-18896
作用于	-18897
信号灯	-18898
党总支	-18899
全心全	-18900
全链条	-18901
公安部	-18902
内容为	-18903
冷水机	-18904
加强了	-18905
区域性	-18906
十年前	-18907
千瓦时	-18908
单一的	-18909
参赛者	-18910
可以去	-18911
可选择	-18912
各地的	-18913
合理性	-18914
合金钢	-18915
含水率	-18916
周月珍	-18917
噪音低	-18918
回转窑	-18919
在他们	-18920
外国人	-18921
外面的	-18922
大伙儿	-18923
大股东	-18924
好好的	-18925
好朋友	-18926
学生在	-18927
定制化	-18928
对学生	-18929
对整个	-18930
对身体	-18931
小时后	-18932
干燥机	-18933
年左右	-18934
并表示	-18935
应选择	-18936
开心的	-18937
强制性	-18938
当下的	-18939
性气体	-18940
技术及	-18941
提供更	-18942
收到的	-18943
断路器	-18944
新北市	-18945
旅游业	-18946
是一门	-18947
是不可	-18948
是属于	-18949
更何况	-18950
最主要	-18951
有多大	-18952
有条件	-18953
朱燕燕	-18954
材质的	-18955
消失了	-18956
温度在	-18957
父母的	-18958
状态的	-18959
电源线	-18960
的原理	-18961
的土地	-18962
的大量	-18963
的性质	-18964
的软件	-18965
短暂的	-18966
等企业	-18967
等重要	-18968
管理费	-18969
系统是	-18970
给用户	-18971
考虑的	-18972
聚丙烯	-18973
自由基	-18974
药监局	-18975
获得者	-18976
被广泛	-18977
被非法	-18978
记录仪	-18979
请点击	-18980
财政厅	-18981
转化成	-18982
近些年	-18983
这三个	-18984
连接器	-18985
逆变器	-18986
速度和	-18987
陈美霖	-18988
需要有	-18989
顾客的	-18990
stag	-18991
▁You	-18992
▁什么是	-18993
主要生产	-18994
交流平台	-18995
产业基地	-18996
亿美元的	-18997
会展中心	-18998
体制改革	-18999
你也可以	-19000
你就可以	-19001
信息安全	-19002
健康状况	-19003
全面发展	-19004
全面实施	-19005
全面提高	-19006
关键环节	-19007
军事行动	-19008
医疗资源	-19009
品牌价值	-19010
多样化的	-19011
子宫内膜	-19012
学习成绩	-19013
它是一种	-19014
宠物美容	-19015
密切相关	-19016
就业机会	-19017
市场交易	-19018
应该如何	-19019
很可能会	-19020
循环经济	-19021
成套设备	-19022
技术应用	-19023
持续提升	-19024
支持力度	-19025
数据信息	-19026
新兴市场	-19027
新年快乐	-19028
日起施行	-19029
最喜欢的	-19030
有的时候	-19031
检察机关	-19032
深度合作	-19033
物流服务	-19034
特殊情况	-19035
研发计划	-19036
社会信用	-19037
突发事件	-19038
绿色食物	-19039
能够提供	-19040
自然灾害	-19041
英雄联盟	-19042
莱芜成考	-19043
西双版纳	-19044
视觉效果	-19045
认为自己	-19046
负责管理	-19047
过去一年	-19048
钢化玻璃	-19049
隆重举行	-19050
非常丰富	-19051
VIDIA	-19052
不同程度的	-19053
借款申请人	-19054
到底是什么	-19055
基层党组织	-19056
希望对大家	-19057
房地产开发	-19058
某种程度上	-19059
焊接变位机	-19060
的解决方案	-19061
突如其来的	-19062
多方安全计算	-19063
全面分析山东成考	-19064
An	-19065
DJ	-19066
IU	-19067
TB	-19068
▁r	-19069
▁主	-19070
▁凡	-19071
▁名	-19072
▁花	-19073
▁还	-19074
▁邮	-19075
上万	-19076
上司	-19077
不乏	-19078
不顺	-19079
中大	-19080
丰硕	-19081
为新	-19082
久而	-19083
之势	-19084
乌拉	-19085
也比	-19086
书店	-19087
乱象	-19088
了她	-19089
争冠	-19090
交界	-19091
交错	-19092
人说	-19093
仅在	-19094
他不	-19095
供求	-19096
假的	-19097
偏见	-19098
做饭	-19099
先知	-19100
克强	-19101
入股	-19102
公顷	-19103
兴业	-19104
再一	-19105
冰岛	-19106
冷的	-19107
分院	-19108
前夕	-19109
加紧	-19110
劣质	-19111
包头	-19112
协办	-19113
反省	-19114
受灾	-19115
受精	-19116
叙事	-19117
叮嘱	-19118
吃苦	-19119
各家	-19120
吉他	-19121
名城	-19122
听听	-19123
吸音	-19124
吻合	-19125
和田	-19126
唯独	-19127
善用	-19128
四次	-19129
四级	-19130
团购	-19131
国泰	-19132
国科	-19133
均由	-19134
增至	-19135
多台	-19136
多糖	-19137
大便	-19138
大选	-19139
大风	-19140
套管	-19141
孔隙	-19142
学报	-19143
学长	-19144
安拉	-19145
安然	-19146
宝乐	-19147
审稿	-19148
封市	-19149
小妹	-19150
就让	-19151
屋里	-19152
巧合	-19153
市县	-19154
帝王	-19155
平淡	-19156
应征	-19157
廉价	-19158
建国	-19159
开除	-19160
引来	-19161
引爆	-19162
弱点	-19163
录影	-19164
彩钢	-19165
很想	-19166
微米	-19167
急难	-19168
恶心	-19169
愈加	-19170
愚蠢	-19171
感光	-19172
手脚	-19173
扳手	-19174
承传	-19175
报备	-19176
抽屉	-19177
拨付	-19178
放眼	-19179
救济	-19180
教科	-19181
斯塔	-19182
早年	-19183
星的	-19184
曼城	-19185
有心	-19186
木工	-19187
机密	-19188
校正	-19189
根部	-19190
格斗	-19191
格林	-19192
梅州	-19193
欣慰	-19194
此项	-19195
殖民	-19196
毁坏	-19197
毅力	-19198
水下	-19199
水压	-19200
汉堡	-19201
江海	-19202
沪深	-19203
油炸	-19204
泉州	-19205
洛斯	-19206
流速	-19207
温润	-19208
港元	-19209
游会	-19210
湖泊	-19211
溢价	-19212
滞后	-19213
演说	-19214
漩涡	-19215
点头	-19216
热轧	-19217
熔融	-19218
牙刷	-19219
狐狸	-19220
环评	-19221
用笔	-19222
男士	-19223
疑难	-19224
白兰	-19225
百合	-19226
的在	-19227
的脸	-19228
盆腔	-19229
相聚	-19230
相辅	-19231
省钱	-19232
看清	-19233
研习	-19234
禁令	-19235
红柿	-19236
约谈	-19237
给它	-19238
羊肉	-19239
美满	-19240
耗时	-19241
耗电	-19242
联控	-19243
肉眼	-19244
胶合	-19245
腹腔	-19246
自如	-19247
舟山	-19248
艰巨	-19249
营地	-19250
血病	-19251
街景	-19252
补足	-19253
补齐	-19254
衬衫	-19255
订立	-19256
评议	-19257
请先	-19258
赶上	-19259
路用	-19260
轴的	-19261
这才	-19262
遗忘	-19263
都得	-19264
酸洗	-19265
重婚	-19266
长尾	-19267
降费	-19268
随心	-19269
雇员	-19270
面广	-19271
须要	-19272
风波	-19273
饮片	-19274
首相	-19275
骑行	-19276
ABB	-19277
BIC	-19278
MAX	-19279
Mod	-19280
SAT	-19281
SUS	-19282
ary	-19283
ata	-19284
cer	-19285
les	-19286
oop	-19287
vip	-19288
▁Sp	-19289
▁sh	-19290
▁专业	-19291
▁世界	-19292
▁之后	-19293
▁四是	-19294
▁城市	-19295
▁天然	-19296
▁安装	-19297
▁应用	-19298
▁我想	-19299
▁手机	-19300
一个新	-19301
一切的	-19302
一大批	-19303
上下班	-19304
上海的	-19305
不会再	-19306
世界里	-19307
两人的	-19308
中得到	-19309
为抓手	-19310
也是有	-19311
事业的	-19312
亿欧元	-19313
仅仅是	-19314
他没有	-19315
以为是	-19316
价格为	-19317
但也有	-19318
健身房	-19319
儿子的	-19320
划分为	-19321
功能性	-19322
化粪池	-19323
十九届	-19324
十分的	-19325
卫生部	-19326
又称为	-19327
可扩展	-19328
可提高	-19329
可达到	-19330
合格后	-19331
合理地	-19332
和商业	-19333
困难和	-19334
在国外	-19335
在线上	-19336
地中海	-19337
增长了	-19338
复杂性	-19339
大小的	-19340
大年夜	-19341
宁波市	-19342
宣传片	-19343
岗位上	-19344
已经从	-19345
广告机	-19346
式发展	-19347
怎么说	-19348
思维和	-19349
您需要	-19350
成员国	-19351
成本和	-19352
执行的	-19353
招标人	-19354
指导和	-19355
措施的	-19356
撕碎机	-19357
教会的	-19358
整理的	-19359
施工时	-19360
无任何	-19361
无公害	-19362
无污染	-19363
时间在	-19364
是公司	-19365
是我的	-19366
有超过	-19367
服务费	-19368
权利人	-19369
来不及	-19370
来提高	-19371
极强的	-19372
款产品	-19373
洛国富	-19374
海淀区	-19375
淘汰赛	-19376
然后把	-19377
爱的人	-19378
现金流	-19379
申请的	-19380
病虫害	-19381
登记表	-19382
的一名	-19383
的一生	-19384
的女孩	-19385
的形状	-19386
的感受	-19387
的手机	-19388
的步伐	-19389
的训练	-19390
的高效	-19391
监护人	-19392
真空泵	-19393
移动式	-19394
突破了	-19395
给人的	-19396
而造成	-19397
自己所	-19398
节约了	-19399
药物的	-19400
莫过于	-19401
表现的	-19402
被淘汰	-19403
要选择	-19404
规范和	-19405
论文的	-19406
调研组	-19407
运行时	-19408
这似乎	-19409
雌激素	-19410
风景区	-19411
饰演的	-19412
oint	-19413
olum	-19414
rong	-19415
▁CPU	-19416
一直没有	-19417
中国政府	-19418
中小银行	-19419
中的重要	-19420
为您介绍	-19421
为自己的	-19422
书法培训	-19423
产品结构	-19424
以上就是	-19425
作为中国	-19426
依法依规	-19427
党的建设	-19428
共产主义	-19429
副理事长	-19430
加盖公章	-19431
北京代孕	-19432
发展前景	-19433
司法机关	-19434
司法行政	-19435
合作共赢	-19436
国家重点	-19437
国有资本	-19438
在线观看	-19439
天津公司	-19440
学年度第	-19441
完成任务	-19442
就业创业	-19443
工作方案	-19444
工作机构	-19445
循环利用	-19446
息息相关	-19447
执行董事	-19448
探索建立	-19449
新增本土	-19450
方方面面	-19451
无线网络	-19452
有序推进	-19453
有这样的	-19454
正规医院	-19455
深化改革	-19456
澎湃新闻	-19457
激光切割	-19458
物流企业	-19459
现在很多	-19460
甚至可以	-19461
生产车间	-19462
的时间和	-19463
相关专业	-19464
研究表明	-19465
离心风机	-19466
第二阶段	-19467
管理服务	-19468
结合实际	-19469
装饰材料	-19470
认真学习	-19471
证券公司	-19472
质量保证	-19473
运营模式	-19474
这个地方	-19475
这么多年	-19476
这些信息	-19477
部分内容	-19478
配套设施	-19479
集中采购	-19480
非常重视	-19481
风险防控	-19482
专家委员会	-19483
保持良好的	-19484
公时事政治	-19485
带着这句话	-19486
慎重的审视	-19487
我们都知道	-19488
特别适用于	-19489
生态环境部	-19490
的相关规定	-19491
黑色素细胞	-19492
党的十九届六	-19493
具有重要意义	-19494
我们还要更加	-19495
材料有限公司	-19496
脱贫攻坚成果	-19497
计量行政部门	-19498
stagram	-19499
一起来了解一下	-19500
非物质文化遗产	-19501
鸦胆子油口服乳液	-19502
慎重的审视这个问题	-19503
我们还要更加慎重的审视这个问题	-19504
,’	-19505
Ni	-19506
Om	-19507
XR	-19508
▁=	-19509
▁向	-19510
一汽	-19511
三条	-19512
上层	-19513
不敌	-19514
世贸	-19515
两句	-19516
两场	-19517
两级	-19518
中兴	-19519
主石	-19520
乐队	-19521
乘积	-19522
了新	-19523
交联	-19524
亲眼	-19525
他要	-19526
以使	-19527
佛的	-19528
佛经	-19529
俱全	-19530
先是	-19531
全英	-19532
农化	-19533
冷气	-19534
出错	-19535
创梦	-19536
利害	-19537
刻画	-19538
剂型	-19539
区市	-19540
南投	-19541
厅长	-19542
反攻	-19543
发炎	-19544
受潮	-19545
变小	-19546
古董	-19547
古迹	-19548
司长	-19549
吃药	-19550
向好	-19551
向西	-19552
品行	-19553
哈士	-19554
哭泣	-19555
喜庆	-19556
回访	-19557
围观	-19558
图标	-19559
域网	-19560
堕落	-19561
塔克	-19562
声器	-19563
复试	-19564
多岁	-19565
大中	-19566
天子	-19567
天数	-19568
天桥	-19569
夹芯	-19570
奥巴	-19571
字节	-19572
定律	-19573
宽广	-19574
封建	-19575
尘土	-19576
就将	-19577
居高	-19578
山中	-19579
岛上	-19580
差错	-19581
布线	-19582
带你	-19583
平潭	-19584
年头	-19585
并举	-19586
广厦	-19587
广受	-19588
应将	-19589
底气	-19590
弄虚	-19591
弹奏	-19592
当晚	-19593
征信	-19594
径向	-19595
得失	-19596
得意	-19597
思惟	-19598
总能	-19599
惯例	-19600
意境	-19601
愿你	-19602
我与	-19603
我真	-19604
扦插	-19605
扫路	-19606
押金	-19607
择优	-19608
挪威	-19609
掌心	-19610
排入	-19611
提请	-19612
援引	-19613
无心	-19614
早点	-19615
曾被	-19616
木头	-19617
本金	-19618
杀虫	-19619
来之	-19620
标定	-19621
校外	-19622
案子	-19623
殿堂	-19624
毒品	-19625
永不	-19626
没事	-19627
洋葱	-19628
淡化	-19629
灾后	-19630
炎热	-19631
点上	-19632
点数	-19633
烟熏	-19634
特约	-19635
特许	-19636
狼毒	-19637
瓶机	-19638
画作	-19639
畅享	-19640
白了	-19641
的铁	-19642
真皮	-19643
督办	-19644
祭祀	-19645
科长	-19646
稳妥	-19647
穿线	-19648
童话	-19649
等大	-19650
筹集	-19651
粉状	-19652
索斯	-19653
纵观	-19654
纸业	-19655
纸巾	-19656
纽带	-19657
经期	-19658
络绎	-19659
胎盘	-19660
脚印	-19661
良心	-19662
芒果	-19663
草根	-19664
蓝光	-19665
藏在	-19666
融化	-19667
裤子	-19668
角球	-19669
议程	-19670
议论	-19671
讲了	-19672
讽刺	-19673
试探	-19674
诱因	-19675
贴标	-19676
跳出	-19677
轻便	-19678
这群	-19679
退款	-19680
送来	-19681
适于	-19682
遗症	-19683
部委	-19684
野心	-19685
铭记	-19686
限期	-19687
隆格	-19688
霉菌	-19689
青铜	-19690
领略	-19691
颇为	-19692
马路	-19693
骨质	-19694
高大	-19695
高雅	-19696
高高	-19697
TML	-19698
ree	-19699
▁IP	-19700
▁Un	-19701
▁VR	-19702
▁一位	-19703
▁为此	-19704
▁广东	-19705
▁建立	-19706
▁支持	-19707
▁汽车	-19708
》),	-19709
不得有	-19710
不要太	-19711
与国内	-19712
专门为	-19713
也是对	-19714
了一点	-19715
人心的	-19716
介质的	-19717
他自己	-19718
会因为	-19719
位置的	-19720
作用和	-19721
保有量	-19722
充电桩	-19723
先生说	-19724
准确度	-19725
创建于	-19726
到其他	-19727
剖宫产	-19728
包装的	-19729
博士生	-19730
却发现	-19731
压力和	-19732
及使用	-19733
及各种	-19734
及时的	-19735
可满足	-19736
可能与	-19737
和家庭	-19738
和电子	-19739
哈士奇	-19740
哪一个	-19741
在某些	-19742
多一点	-19743
大湾区	-19744
失败的	-19745
宝宝的	-19746
对美国	-19747
对记者	-19748
就会被	-19749
就比较	-19750
局领导	-19751
工业用	-19752
并不多	-19753
成年人	-19754
我们去	-19755
或个人	-19756
房间里	-19757
所用的	-19758
抗腐蚀	-19759
招投标	-19760
招聘会	-19761
摩托车	-19762
放射性	-19763
故障时	-19764
无害化	-19765
时必须	-19766
更具有	-19767
最喜欢	-19768
本质上	-19769
桃园市	-19770
水庆霞	-19771
沉重的	-19772
清洁剂	-19773
激光器	-19774
灵活的	-19775
牵涉到	-19776
玩家们	-19777
申请者	-19778
病患者	-19779
的一半	-19780
的希望	-19781
的数字	-19782
的梦想	-19783
的热门	-19784
的美好	-19785
的造型	-19786
的领域	-19787
研究了	-19788
空气的	-19789
第十二	-19790
等设备	-19791
管理处	-19792
而这个	-19793
能够将	-19794
脂肪酸	-19795
舒适度	-19796
营业额	-19797
要避免	-19798
觉得很	-19799
设置为	-19800
读书会	-19801
资格的	-19802
运用到	-19803
还会有	-19804
这启发	-19805
通过在	-19806
都喜欢	-19807
都是用	-19808
需求和	-19809
项目和	-19810
atch	-19811
olog	-19812
▁以上是	-19813
▁无论是	-19814
一些问题	-19815
一直都是	-19816
上一层楼	-19817
不得不说	-19818
不能满足	-19819
专门从事	-19820
久而久之	-19821
二级市场	-19822
产业园区	-19823
从而导致	-19824
但实际上	-19825
全方位的	-19826
共产党员	-19827
关于印发	-19828
初心使命	-19829
加快构建	-19830
发展空间	-19831
只不过是	-19832
因为没有	-19833
在这样的	-19834
型氮化镓	-19835
处理方法	-19836
如果不是	-19837
安全保障	-19838
实事求是	-19839
对其进行	-19840
工作情况	-19841
工作流程	-19842
广泛关注	-19843
建筑施工	-19844
所以对于	-19845
招生考试	-19846
教师教学	-19847
数据传输	-19848
文化交流	-19849
新老客户	-19850
更加注重	-19851
有很多种	-19852
服务企业	-19853
根据国家	-19854
桥梁护栏	-19855
治疗效果	-19856
消费群体	-19857
渤海银行	-19858
的朋友们	-19859
研发团队	-19860
积极主动	-19861
签订合同	-19862
管理公司	-19863
管理学院	-19864
统计数据	-19865
脚踏实地	-19866
落实到位	-19867
规划建设	-19868
还要注意	-19869
都不知道	-19870
非常容易	-19871
▁Comp	-19872
不同类型的	-19873
与众不同的	-19874
世界各地的	-19875
为了更好地	-19876
具有很强的	-19877
根据不同的	-19878
经济开发区	-19879
▁Ultra	-19880
世界卫生组织	-19881
玻璃钢冷却塔	-19882
▁值得注意的是	-19883
!“	-19884
AK	-19885
Ar	-19886
DG	-19887
FP	-19888
SR	-19889
‍‍	-19890
▁◆	-19891
▁分	-19892
▁及	-19893
▁古	-19894
▁彭	-19895
▁男	-19896
一动	-19897
一封	-19898
一指	-19899
一说	-19900
七一	-19901
七八	-19902
上天	-19903
下图	-19904
不以	-19905
不力	-19906
不加	-19907
不善	-19908
与中	-19909
专车	-19910
世卫	-19911
中南	-19912
中德	-19913
主旨	-19914
举止	-19915
举足	-19916
久久	-19917
乳头	-19918
事关	-19919
事迹	-19920
人就	-19921
他有	-19922
以期	-19923
企划	-19924
作曲	-19925
你了	-19926
保利	-19927
俱进	-19928
借贷	-19929
偿付	-19930
傍晚	-19931
储藏	-19932
兄妹	-19933
光亮	-19934
光洁	-19935
全数	-19936
公会	-19937
兰花	-19938
兽医	-19939
再创	-19940
再见	-19941
冷拔	-19942
减低	-19943
凯德	-19944
出乎	-19945
出汗	-19946
则可	-19947
到家	-19948
刹那	-19949
加水	-19950
助孕	-19951
勤劳	-19952
单曲	-19953
去掉	-19954
又叫	-19955
反面	-19956
变大	-19957
可按	-19958
台州	-19959
吃得	-19960
合照	-19961
听器	-19962
听闻	-19963
周到	-19964
周日	-19965
和她	-19966
商户	-19967
围海	-19968
坐镇	-19969
境地	-19970
处事	-19971
备有	-19972
外力	-19973
大屏	-19974
夹具	-19975
察看	-19976
对讲	-19977
导出	-19978
尊者	-19979
小猫	-19980
尸那	-19981
山寨	-19982
巡查	-19983
工控	-19984
并存	-19985
应由	-19986
底板	-19987
建档	-19988
异形	-19989
强悍	-19990
忧郁	-19991
总督	-19992
您将	-19993
您是	-19994
惨败	-19995
想联	-19996
或少	-19997
战中	-19998
战线	-19999
戴着	-20000
所占	-20001
托运	-20002
抗癌	-20003
抢抓	-20004
担负	-20005
拉斯	-20006
拖拉	-20007
挑剔	-20008
振荡	-20009
捆绑	-20010
接力	-20011
接送	-20012
提拔	-20013
插头	-20014
揭开	-20015
支队	-20016
整数	-20017
斑点	-20018
斗志	-20019
方圆	-20020
旋涡	-20021
无味	-20022
无缘	-20023
时钟	-20024
易武	-20025
普京	-20026
有成	-20027
朗朗	-20028
朝向	-20029
期许	-20030
本性	-20031
朱德	-20032
松木	-20033
林芝	-20034
染疫	-20035
株式	-20036
植树	-20037
次要	-20038
正文	-20039
残渣	-20040
水槽	-20041
永磁	-20042
油性	-20043
波兰	-20044
波澜	-20045
泥土	-20046
消退	-20047
温升	-20048
港湾	-20049
漂浮	-20050
热缩	-20051
片刻	-20052
王建	-20053
用房	-20054
申花	-20055
白金	-20056
白马	-20057
百亿	-20058
的了	-20059
的他	-20060
的情	-20061
皮质	-20062
看书	-20063
看病	-20064
确切	-20065
社工	-20066
离家	-20067
私营	-20068
立委	-20069
等各	-20070
糖果	-20071
系由	-20072
素食	-20073
紫色	-20074
红线	-20075
纯正	-20076
终生	-20077
统军	-20078
者为	-20079
肤色	-20080
自尊	-20081
臭味	-20082
舌头	-20083
著称	-20084
补习	-20085
要走	-20086
警觉	-20087
记明	-20088
设在	-20089
课外	-20090
调剂	-20091
账款	-20092
购销	-20093
费高	-20094
[...]
